{
  "version": "1.0",
  "truncation": null,
  "padding": null,
  "added_tokens": [
    {
      "id": 0,
      "special": true,
      "content": "<PAD>",
      "single_word": false,
      "lstrip": false,
      "rstrip": false,
      "normalized": false
    },
    {
      "id": 1,
      "special": true,
      "content": "<UNK>",
      "single_word": false,
      "lstrip": false,
      "rstrip": false,
      "normalized": false
    },
    {
      "id": 2,
      "special": true,
      "content": "<BOS>",
      "single_word": false,
      "lstrip": false,
      "rstrip": false,
      "normalized": false
    },
    {
      "id": 3,
      "special": true,
      "content": "<EOS>",
      "single_word": false,
      "lstrip": false,
      "rstrip": false,
      "normalized": false
    }
  ],
  "normalizer": {
    "type": "Sequence",
    "normalizers": [
      {
        "type": "NFKC"
      },
      {
        "type": "Replace",
        "pattern": {
          "String": "[^'\n\\ \\!\"\\#\\$\\%\\&'\\(\\)\\*\\+\\,\\-\\.\\/0123456789\\:\\;\\<\\=\\>\\?\\@ABCDEFGHIJKLMNOPQRSTUVWXYZ\\[\\\\]\\^\\_\\`abcdefghijklmnopqrstuvwxyz\\{\\|\\}\\~\\±\\´\\·ÂÃÄÅÇÖÜâçéêîöûüĞğ\\İ\\ıŞş\\‘\\’\\…\\′']"
        },
        "content": ""
      },
      {
        "type": "Replace",
        "pattern": {
          "String": "I"
        },
        "content": "ı"
      },
      {
        "type": "Replace",
        "pattern": {
          "String": "İ"
        },
        "content": "i"
      },
      {
        "type": "Lowercase"
      }
    ]
  },
  "pre_tokenizer": {
    "type": "Sequence",
    "pretokenizers": [
      {
        "type": "Digits",
        "individual_digits": true
      },
      {
        "type": "Whitespace"
      },
      {
        "type": "Punctuation"
      },
      {
        "type": "Metaspace",
        "replacement": "▁",
        "add_prefix_space": true
      }
    ]
  },
  "post_processor": null,
  "decoder": {
    "type": "Metaspace",
    "replacement": "▁",
    "add_prefix_space": true
  },
  "model": {
    "type": "Unigram",
    "unk_id": 1,
    "vocab": [
      [
        "<PAD>",
        0.0
      ],
      [
        "<UNK>",
        0.0
      ],
      [
        "<BOS>",
        0.0
      ],
      [
        "<EOS>",
        0.0
      ],
      [
        "▁",
        -1.4483561287087845
      ],
      [
        ".",
        -3.3384789914463333
      ],
      [
        ",",
        -3.666611189179788
      ],
      [
        "'",
        -3.93697962318633
      ],
      [
        "1",
        -4.156242202083218
      ],
      [
        "▁ve",
        -4.276842329022191
      ],
      [
        "0",
        -4.372376647985549
      ],
      [
        "=",
        -4.526468465829906
      ],
      [
        "\"",
        -4.5765114733456596
      ],
      [
        "2",
        -4.591949368507597
      ],
      [
        "▁bir",
        -4.731473307819439
      ],
      [
        "9",
        -4.748855631788247
      ],
      [
        "a",
        -4.98455301543223
      ],
      [
        "e",
        -5.148816900335033
      ],
      [
        "n",
        -5.315663699997527
      ],
      [
        "(",
        -5.325840540013237
      ],
      [
        ")",
        -5.326986875700843
      ],
      [
        "-",
        -5.413695614195058
      ],
      [
        "8",
        -5.423332025047841
      ],
      [
        "▁da",
        -5.445686557917597
      ],
      [
        "3",
        -5.489862714038349
      ],
      [
        "5",
        -5.496103432498156
      ],
      [
        "▁bu",
        -5.503904899191895
      ],
      [
        "▁de",
        -5.514294149034772
      ],
      [
        "4",
        -5.585884659941058
      ],
      [
        "6",
        -5.601599247010494
      ],
      [
        "7",
        -5.606723558038913
      ],
      [
        "▁olarak",
        -5.64569763331286
      ],
      [
        "▁ile",
        -5.753409330254906
      ],
      [
        "i",
        -5.754657444353514
      ],
      [
        "nın",
        -5.9170315662316835
      ],
      [
        "s",
        -5.985712037771359
      ],
      [
        "▁için",
        -5.9922851028234305
      ],
      [
        "dir",
        -6.031672913534344
      ],
      [
        "▁olan",
        -6.140252327046557
      ],
      [
        "k",
        -6.159862704672781
      ],
      [
        "’",
        -6.165136495529934
      ],
      [
        "r",
        -6.290075958455267
      ],
      [
        "▁yılında",
        -6.307458268790782
      ],
      [
        "dır",
        -6.332372267009928
      ],
      [
        "nin",
        -6.354123055636414
      ],
      [
        "▁tarafından",
        -6.3675620181992745
      ],
      [
        "d",
        -6.379929822879374
      ],
      [
        "lar",
        -6.405432937696206
      ],
      [
        "ı",
        -6.410769384827638
      ],
      [
        "▁sonra",
        -6.412103727953204
      ],
      [
        "▁ilk",
        -6.462472826125323
      ],
      [
        "ler",
        -6.476470723344381
      ],
      [
        "▁daha",
        -6.482731067704643
      ],
      [
        "o",
        -6.532376855838669
      ],
      [
        "den",
        -6.542716397241962
      ],
      [
        "▁en",
        -6.594857562511269
      ],
      [
        "▁in",
        -6.60244924305672
      ],
      [
        ":",
        -6.6093869055675984
      ],
      [
        "ya",
        -6.624133546165234
      ],
      [
        "m",
        -6.667091425170355
      ],
      [
        "▁ın",
        -6.667893355616311
      ],
      [
        "dan",
        -6.668645183352295
      ],
      [
        "ye",
        -6.685552005775827
      ],
      [
        ";",
        -6.6928738040933915
      ],
      [
        "t",
        -6.75062217542124
      ],
      [
        "y",
        -6.767863403887604
      ],
      [
        "▁yer",
        -6.79220825278389
      ],
      [
        "da",
        -6.811705302085279
      ],
      [
        "p",
        -6.820983043061355
      ],
      [
        "▁ise",
        -6.843798342731528
      ],
      [
        "u",
        -6.860894933969819
      ],
      [
        "nda",
        -6.888195943885993
      ],
      [
        "▁çok",
        -6.910741025971159
      ],
      [
        "▁gibi",
        -6.916433752387658
      ],
      [
        "▁büyük",
        -6.919636867046735
      ],
      [
        "▁nin",
        -6.926948734683604
      ],
      [
        "la",
        -6.933498777828403
      ],
      [
        "nde",
        -6.936752112080596
      ],
      [
        "de",
        -6.94359895964517
      ],
      [
        "▁te",
        -6.9829034802729435
      ],
      [
        "▁arasında",
        -7.005759705946163
      ],
      [
        "in",
        -7.016609819992899
      ],
      [
        "▁iki",
        -7.020406569352538
      ],
      [
        "l",
        -7.035439839529571
      ],
      [
        "▁kadar",
        -7.046218549513631
      ],
      [
        "ki",
        -7.057765008723139
      ],
      [
        "le",
        -7.080103004888766
      ],
      [
        "tir",
        -7.103341599434508
      ],
      [
        "li",
        -7.107459287227069
      ],
      [
        "tır",
        -7.1232544734187435
      ],
      [
        "▁ya",
        -7.12503525827195
      ],
      [
        "▁veya",
        -7.157163199981271
      ],
      [
        "▁oldu",
        -7.1813634289213315
      ],
      [
        "leri",
        -7.1858166043583775
      ],
      [
        "ları",
        -7.205646760691561
      ],
      [
        "▁göre",
        -7.216896572015706
      ],
      [
        "▁un",
        -7.233886921419586
      ],
      [
        "yle",
        -7.251323217547181
      ],
      [
        "▁bağlı",
        -7.255133351410764
      ],
      [
        "▁yeni",
        -7.272662605523072
      ],
      [
        "si",
        -7.298045875002295
      ],
      [
        "▁ancak",
        -7.305707055114457
      ],
      [
        "b",
        -7.306430336483293
      ],
      [
        "z",
        -7.316457926672211
      ],
      [
        "▁aynı",
        -7.327991910494795
      ],
      [
        "▁diğer",
        -7.33375093278484
      ],
      [
        "▁olduğu",
        -7.338109580283003
      ],
      [
        "▁türkiye",
        -7.347887351616805
      ],
      [
        "nı",
        -7.35978574398167
      ],
      [
        "yla",
        -7.3609268732448605
      ],
      [
        "▁her",
        -7.363598700776766
      ],
      [
        "c",
        -7.373079458410732
      ],
      [
        "▁tarihinde",
        -7.394390713664562
      ],
      [
        "▁km",
        -7.395928809231675
      ],
      [
        "yi",
        -7.419519102752194
      ],
      [
        "lı",
        -7.442057561979057
      ],
      [
        "yı",
        -7.450776704165371
      ],
      [
        "▁bulunan",
        -7.452750557283133
      ],
      [
        "▁alan",
        -7.456182307193188
      ],
      [
        "▁birlikte",
        -7.46451351672088
      ],
      [
        "▁dünya",
        -7.466975598385051
      ],
      [
        "▁the",
        -7.4860983446533
      ],
      [
        "en",
        -7.502548446746253
      ],
      [
        "▁türk",
        -7.528145609764653
      ],
      [
        "▁ayrıca",
        -7.540986133843397
      ],
      [
        "h",
        -7.546086484279156
      ],
      [
        "▁ne",
        -7.551045835405295
      ],
      [
        "lerin",
        -7.566512073466512
      ],
      [
        "▁eski",
        -7.5909745022996304
      ],
      [
        "g",
        -7.59522659418551
      ],
      [
        "ların",
        -7.59902870374524
      ],
      [
        "▁yıl",
        -7.599583251241642
      ],
      [
        "▁karşı",
        -7.60021168396786
      ],
      [
        "▁son",
        -7.601894526083996
      ],
      [
        "an",
        -7.612323123593226
      ],
      [
        "v",
        -7.616953445046775
      ],
      [
        "f",
        -7.639606382187319
      ],
      [
        "▁etti",
        -7.65686668838806
      ],
      [
        "/",
        -7.660907826185676
      ],
      [
        "di",
        -7.676322546803215
      ],
      [
        "er",
        -7.678439905143135
      ],
      [
        "▁adlı",
        -7.685058930302574
      ],
      [
        "nden",
        -7.693634189447941
      ],
      [
        "ndan",
        -7.69678433477115
      ],
      [
        "▁aldı",
        -7.7034236579618245
      ],
      [
        "▁adı",
        -7.710591721182974
      ],
      [
        "▁genel",
        -7.715985460696077
      ],
      [
        "▁ilçesine",
        -7.720700645545884
      ],
      [
        "▁istanbul",
        -7.727683860171366
      ],
      [
        "▁önemli",
        -7.72788764286234
      ],
      [
        "▁başladı",
        -7.734337096473219
      ],
      [
        "ken",
        -7.7391563476775875
      ],
      [
        "▁iyi",
        -7.758169533400622
      ],
      [
        "▁ikinci",
        -7.764156583472808
      ],
      [
        "dur",
        -7.765737406345247
      ],
      [
        "%",
        -7.7755305207440575
      ],
      [
        "ta",
        -7.778625878547386
      ],
      [
        "deki",
        -7.778661299568364
      ],
      [
        "▁önce",
        -7.784934018674361
      ],
      [
        "lik",
        -7.790950528548832
      ],
      [
        "▁avrupa",
        -7.803417595000333
      ],
      [
        "▁yüksek",
        -7.830780453886263
      ],
      [
        "▁birçok",
        -7.849904270208253
      ],
      [
        "▁yapılan",
        -7.850222935841991
      ],
      [
        "▁na",
        -7.852801860079367
      ],
      [
        "▁bazı",
        -7.85551710089973
      ],
      [
        "▁olmuştur",
        -7.867129530127617
      ],
      [
        "te",
        -7.871616604257243
      ],
      [
        "▁üç",
        -7.885129948323172
      ],
      [
        "▁kendi",
        -7.885790670214083
      ],
      [
        "▁şekilde",
        -7.889766006937126
      ],
      [
        "▁içinde",
        -7.8924937801048305
      ],
      [
        "▁film",
        -7.897988581696035
      ],
      [
        "sı",
        -7.899526543353462
      ],
      [
        "▁üniversitesi",
        -7.900913443424686
      ],
      [
        "us",
        -7.905126297192593
      ],
      [
        "sine",
        -7.910454023158838
      ],
      [
        "▁vardır",
        -7.910662466520423
      ],
      [
        "▁üzerine",
        -7.91205861262954
      ],
      [
        "ca",
        -7.914684364308362
      ],
      [
        "▁tüm",
        -7.914875571557751
      ],
      [
        "▁ta",
        -7.922715017458129
      ],
      [
        "▁mart",
        -7.931426164783133
      ],
      [
        "▁üzere",
        -7.942141834250565
      ],
      [
        "▁olduğunu",
        -7.942734023394795
      ],
      [
        "▁sahip",
        -7.959407513003779
      ],
      [
        "▁kez",
        -7.961359402262563
      ],
      [
        "sına",
        -7.961603064705514
      ],
      [
        "▁daki",
        -7.968401585637029
      ],
      [
        "▁nun",
        -7.968913963728124
      ],
      [
        "x",
        -7.9689471120695945
      ],
      [
        "ine",
        -7.969859863705718
      ],
      [
        "tan",
        -7.972455089772055
      ],
      [
        "ın",
        -7.9870898996012
      ],
      [
        "larına",
        -7.988246458862818
      ],
      [
        "▁görev",
        -7.989888031258072
      ],
      [
        "▁kabul",
        -7.995064320545424
      ],
      [
        "▁tek",
        -7.995144527719777
      ],
      [
        "▁yaptı",
        -8.002253187879885
      ],
      [
        "▁küçük",
        -8.002715928532409
      ],
      [
        "▁fazla",
        -8.007775550553804
      ],
      [
        "arak",
        -8.010442239823433
      ],
      [
        "▁mayıs",
        -8.015299427409406
      ],
      [
        "▁ardından",
        -8.016136981647492
      ],
      [
        "▁zaman",
        -8.016143905223464
      ],
      [
        "lerini",
        -8.020284885474595
      ],
      [
        "▁devam",
        -8.023150527258226
      ],
      [
        "lerine",
        -8.023473740715973
      ],
      [
        "▁ocak",
        -8.027052452484533
      ],
      [
        "▁şarkı",
        -8.027247186246484
      ],
      [
        "▁gelen",
        -8.027868012142477
      ],
      [
        "▁olmak",
        -8.03031581336042
      ],
      [
        "▁kasım",
        -8.062062470444477
      ],
      [
        "▁abd",
        -8.067661882351429
      ],
      [
        "▁hem",
        -8.072090957980373
      ],
      [
        "▁devlet",
        -8.074898231447536
      ],
      [
        "▁ilinin",
        -8.084907655191465
      ],
      [
        "▁farklı",
        -8.08542060888695
      ],
      [
        "▁aralık",
        -8.08676792225459
      ],
      [
        "erek",
        -8.089072056411965
      ],
      [
        "▁geri",
        -8.092712058970378
      ],
      [
        "sa",
        -8.09290369694277
      ],
      [
        "▁ekim",
        -8.09561649393575
      ],
      [
        "larını",
        -8.098925886783238
      ],
      [
        "▁eden",
        -8.09919782481347
      ],
      [
        "▁savaşı",
        -8.101108130773886
      ],
      [
        "▁eylül",
        -8.104177032334759
      ],
      [
        "▁üzerinde",
        -8.108135979646171
      ],
      [
        "▁haziran",
        -8.11149046633583
      ],
      [
        "se",
        -8.114842905534985
      ],
      [
        "▁nisan",
        -8.122639898587494
      ],
      [
        "oğlu",
        -8.12390154818165
      ],
      [
        "ini",
        -8.125059796135501
      ],
      [
        "▁merkezi",
        -8.130134701488428
      ],
      [
        "▁su",
        -8.130520652277553
      ],
      [
        "▁temmuz",
        -8.130870651599926
      ],
      [
        "▁osmanlı",
        -8.133888770557393
      ],
      [
        "lu",
        -8.136158996958132
      ],
      [
        "▁ağustos",
        -8.141404610723214
      ],
      [
        "▁şehir",
        -8.144307001001467
      ],
      [
        "▁çeşitli",
        -8.146838337055945
      ],
      [
        "▁amerika",
        -8.157781052585753
      ],
      [
        "▁süre",
        -8.160008915635824
      ],
      [
        "▁olup",
        -8.163291849405855
      ],
      [
        "▁müzik",
        -8.165492221612956
      ],
      [
        "▁güney",
        -8.175980587167068
      ],
      [
        "▁nüfusu",
        -8.186389760366277
      ],
      [
        "ti",
        -8.18766597799047
      ],
      [
        "▁yılları",
        -8.190519471010814
      ],
      [
        "▁uzun",
        -8.195410926871082
      ],
      [
        "▁sırasında",
        -8.197573494677957
      ],
      [
        "▁bulunmaktadır",
        -8.20847056105626
      ],
      [
        "al",
        -8.209858858338322
      ],
      [
        "▁özel",
        -8.214125985378956
      ],
      [
        "lerde",
        -8.215342101884994
      ],
      [
        "ten",
        -8.217418217074057
      ],
      [
        "un",
        -8.218955626207071
      ],
      [
        "ce",
        -8.219235987127771
      ],
      [
        "▁biri",
        -8.220891094142766
      ],
      [
        "▁ortaya",
        -8.222385659979382
      ],
      [
        "▁sadece",
        -8.226128696647336
      ],
      [
        "larda",
        -8.227364585390822
      ],
      [
        "nun",
        -8.229199940686797
      ],
      [
        "▁birleşik",
        -8.23218602808396
      ],
      [
        "▁orta",
        -8.233546377822721
      ],
      [
        "▁kişi",
        -8.2347784443237
      ],
      [
        "▁şubat",
        -8.236737669204334
      ],
      [
        "▁kuzey",
        -8.240574479700186
      ],
      [
        "lere",
        -8.246153168752725
      ],
      [
        "▁millî",
        -8.246784533362147
      ],
      [
        "▁ana",
        -8.248199236695342
      ],
      [
        "man",
        -8.259645612850967
      ],
      [
        "▁yaklaşık",
        -8.260751270283567
      ],
      [
        "ö",
        -8.261149486534453
      ],
      [
        "lara",
        -8.264707354356318
      ],
      [
        "▁of",
        -8.273851992389865
      ],
      [
        "▁futbol",
        -8.27404586024811
      ],
      [
        "▁yılı",
        -8.280594423823404
      ],
      [
        "▁boyunca",
        -8.285622742874699
      ],
      [
        "▁mahalle",
        -8.287139517616254
      ],
      [
        "▁kısa",
        -8.293271972168075
      ],
      [
        "▁fakat",
        -8.29651996700766
      ],
      [
        "▁tarihi",
        -8.297305996868449
      ],
      [
        "▁zamanda",
        -8.300822406613499
      ],
      [
        "▁yeniden",
        -8.301216832910558
      ],
      [
        "▁grup",
        -8.305716981972683
      ],
      [
        "▁nedeniyle",
        -8.311423858631388
      ],
      [
        "lerinin",
        -8.311977469234957
      ],
      [
        "▁doğu",
        -8.317017435713238
      ],
      [
        "▁savaş",
        -8.31788476514181
      ],
      [
        "tur",
        -8.31895734651212
      ],
      [
        "▁uluslararası",
        -8.3236557040544
      ],
      [
        "du",
        -8.32683489609886
      ],
      [
        "▁ilçe",
        -8.33730757949704
      ],
      [
        "▁ıı",
        -8.346822875819742
      ],
      [
        "ü",
        -8.357043134197742
      ],
      [
        "▁doğru",
        -8.358240752653444
      ],
      [
        "▁el",
        -8.359944333708162
      ],
      [
        "▁eğitim",
        -8.360794550750237
      ],
      [
        "mıştır",
        -8.361081970955064
      ],
      [
        "ktan",
        -8.366807154723867
      ],
      [
        "▁özellikle",
        -8.367167021021988
      ],
      [
        "dı",
        -8.373754175059393
      ],
      [
        "▁gün",
        -8.374974270097587
      ],
      [
        "▁bunun",
        -8.379072082648067
      ],
      [
        "▁uzaklıkta",
        -8.381875924733672
      ],
      [
        "larının",
        -8.38217874128839
      ],
      [
        "▁coğrafya",
        -8.38503637286232
      ],
      [
        "▁ama",
        -8.386238018935753
      ],
      [
        "lık",
        -8.387188330364365
      ],
      [
        "▁başka",
        -8.387625884548115
      ],
      [
        "dür",
        -8.388169621558323
      ],
      [
        "▁açık",
        -8.390309935856099
      ],
      [
        "▁takım",
        -8.390786022859114
      ],
      [
        "▁genellikle",
        -8.393972607849719
      ],
      [
        "▁edildi",
        -8.402330869175438
      ],
      [
        "▁oyuncu",
        -8.402603471727423
      ],
      [
        "▁yaptığı",
        -8.41711828717044
      ],
      [
        "▁yakın",
        -8.420627573227229
      ],
      [
        "▁az",
        -8.421506365115984
      ],
      [
        "ş",
        -8.422796610880912
      ],
      [
        "▁yerine",
        -8.422895001398294
      ],
      [
        "▁nüfus",
        -8.423666347314139
      ],
      [
        "▁almanya",
        -8.425324768918419
      ],
      [
        "ma",
        -8.426258685931822
      ],
      [
        "▁köy",
        -8.42700888850993
      ],
      [
        "▁lig",
        -8.43093334655234
      ],
      [
        "▁sıra",
        -8.430964778822409
      ],
      [
        "▁edilen",
        -8.431043638424379
      ],
      [
        "▁bulunur",
        -8.434961850470494
      ],
      [
        "os",
        -8.438607525706765
      ],
      [
        "on",
        -8.439068831896611
      ],
      [
        "▁dört",
        -8.442437208054184
      ],
      [
        "sini",
        -8.445630774102643
      ],
      [
        "▁hakkında",
        -8.445894873696428
      ],
      [
        "▁batı",
        -8.449906615140984
      ],
      [
        "▁altında",
        -8.45292307773377
      ],
      [
        "▁rağmen",
        -8.459419754426646
      ],
      [
        "▁fransa",
        -8.460298913713071
      ],
      [
        "|",
        -8.461724097094319
      ],
      [
        "▁ilgili",
        -8.463375456963938
      ],
      [
        "▁alman",
        -8.466341813352024
      ],
      [
        "▁ulusal",
        -8.470535488912915
      ],
      [
        "▁kadın",
        -8.475235484125566
      ],
      [
        "▁birliği",
        -8.483701002198544
      ],
      [
        "▁kariyeri",
        -8.48896968941836
      ],
      [
        "▁ankara",
        -8.493205447973057
      ],
      [
        "▁dahil",
        -8.503727805914671
      ],
      [
        "▁elde",
        -8.510456928784533
      ],
      [
        "▁başkanı",
        -8.516962788278354
      ],
      [
        "▁tarihçe",
        -8.517421055237175
      ],
      [
        "▁tekrar",
        -8.518800674816992
      ],
      [
        "w",
        -8.525420207697216
      ],
      [
        "▁olması",
        -8.528713898358701
      ],
      [
        "▁ülke",
        -8.529787816375427
      ],
      [
        "edilmiştir",
        -8.531798270911654
      ],
      [
        "ydı",
        -8.532920851157694
      ],
      [
        "▁sonunda",
        -8.535274735723617
      ],
      [
        "▁almıştır",
        -8.536803958415312
      ],
      [
        "▁kara",
        -8.542796921257471
      ],
      [
        "▁onun",
        -8.544248298191127
      ],
      [
        "▁hava",
        -8.5479893757806
      ],
      [
        "▁belediye",
        -8.552351721504863
      ],
      [
        "▁ingiliz",
        -8.552950149677823
      ],
      [
        "▁burada",
        -8.554108115539254
      ],
      [
        "▁şu",
        -8.559243573242773
      ],
      [
        "▁deniz",
        -8.559263325587468
      ],
      [
        "▁kazandı",
        -8.56468139598861
      ],
      [
        "el",
        -8.575494971087739
      ],
      [
        "ar",
        -8.576567756318708
      ],
      [
        "▁amerikan",
        -8.577316183378986
      ],
      [
        "▁sezon",
        -8.57755143646702
      ],
      [
        "▁eder",
        -8.584093809416176
      ],
      [
        "▁ait",
        -8.586349941550665
      ],
      [
        "▁ay",
        -8.588472404339333
      ],
      [
        "▁bilinen",
        -8.590660638404419
      ],
      [
        "▁birkaç",
        -8.59068696258794
      ],
      [
        "yan",
        -8.590815455380374
      ],
      [
        "daki",
        -8.595505877893029
      ],
      [
        "▁milyon",
        -8.598414764256992
      ],
      [
        "▁ele",
        -8.599304655727622
      ],
      [
        "▁yol",
        -8.601524453527556
      ],
      [
        "▁roma",
        -8.604536033912368
      ],
      [
        "ydi",
        -8.608215110032749
      ],
      [
        "▁tam",
        -8.611773310751484
      ],
      [
        "▁cumhuriyeti",
        -8.613292364869213
      ],
      [
        "▁takımı",
        -8.613534571133217
      ],
      [
        "▁halk",
        -8.614833564387238
      ],
      [
        "▁il",
        -8.61522194769496
      ],
      [
        "lerinden",
        -8.615586665542954
      ],
      [
        "▁iç",
        -8.615860970561512
      ],
      [
        "ve",
        -8.615936696123647
      ],
      [
        "▁babası",
        -8.62090848515834
      ],
      [
        "▁kullanılan",
        -8.621060007476276
      ],
      [
        "lerden",
        -8.62292578225344
      ],
      [
        "tı",
        -8.627352301952952
      ],
      [
        "lardan",
        -8.627359279846777
      ],
      [
        "es",
        -8.628450219279102
      ],
      [
        "▁adıyla",
        -8.630098637890324
      ],
      [
        "]",
        -8.63051611005937
      ],
      [
        "[",
        -8.632043533633253
      ],
      [
        "▁yine",
        -8.632379058327952
      ],
      [
        "▁toplam",
        -8.64015325659873
      ],
      [
        "▁rusya",
        -8.640422420864523
      ],
      [
        "▁new",
        -8.64132855769822
      ],
      [
        "▁sırada",
        -8.646917290856713
      ],
      [
        "▁on",
        -8.647494491621172
      ],
      [
        "▁insan",
        -8.647830509487433
      ],
      [
        "is",
        -8.64922222520031
      ],
      [
        "ci",
        -8.65108647124439
      ],
      [
        "▁grubu",
        -8.652104737582448
      ],
      [
        "▁arasındaki",
        -8.652261496264448
      ],
      [
        "_",
        -8.653141877214354
      ],
      [
        "▁sezonunda",
        -8.653606139868051
      ],
      [
        "▁sahiptir",
        -8.657124906946766
      ],
      [
        "▁kupası",
        -8.658927005518168
      ],
      [
        "▁yapan",
        -8.659565415571809
      ],
      [
        "tür",
        -8.660001809913048
      ],
      [
        "▁oluşan",
        -8.662460809431723
      ],
      [
        "▁onu",
        -8.667680701546368
      ],
      [
        "▁teknik",
        -8.669849876346682
      ],
      [
        "▁dönem",
        -8.671107654751184
      ],
      [
        "▁ligi",
        -8.672241951682128
      ],
      [
        "ing",
        -8.674684540998934
      ],
      [
        "▁şehrin",
        -8.674992331866246
      ],
      [
        "▁parti",
        -8.678419229229151
      ],
      [
        "▁verdi",
        -8.678807405996064
      ],
      [
        "▁ev",
        -8.680908708518976
      ],
      [
        "▁çıkan",
        -8.683445186988292
      ],
      [
        "sel",
        -8.683532998131255
      ],
      [
        "▁beri",
        -8.684201837765594
      ],
      [
        "▁ni",
        -8.688839160047685
      ],
      [
        "▁iş",
        -8.691165610297897
      ],
      [
        "▁çıktı",
        -8.692445865457158
      ],
      [
        "lerle",
        -8.696786052236394
      ],
      [
        "▁üçüncü",
        -8.698099232571881
      ],
      [
        "▁albümü",
        -8.698372324105947
      ],
      [
        "▁bin",
        -8.698950620233534
      ],
      [
        "▁albüm",
        -8.700435384687092
      ],
      [
        "idi",
        -8.706363965466977
      ],
      [
        "▁partisi",
        -8.707480081578788
      ],
      [
        "▁geldi",
        -8.710481694210072
      ],
      [
        "▁üst",
        -8.7110506383498
      ],
      [
        "▁temel",
        -8.712738097575382
      ],
      [
        "me",
        -8.714571773203117
      ],
      [
        "▁alt",
        -8.716343039601382
      ],
      [
        "▁paşa",
        -8.716769721321462
      ],
      [
        "▁fransız",
        -8.723911765558253
      ],
      [
        "▁filmi",
        -8.723985230963878
      ],
      [
        "yapmıştır",
        -8.726769040587913
      ],
      [
        "▁üyesi",
        -8.728907953616401
      ],
      [
        "▁devletleri",
        -8.729670470215183
      ],
      [
        "▁inşa",
        -8.730714742940215
      ],
      [
        "▁rus",
        -8.732832785449467
      ],
      [
        "▁adını",
        -8.736371685686812
      ],
      [
        "larla",
        -8.736682369704416
      ],
      [
        "kten",
        -8.738941369052691
      ],
      [
        "▁almaktadır",
        -8.739344135894093
      ],
      [
        "▁itibaren",
        -8.739485506780692
      ],
      [
        "▁çin",
        -8.739586950850393
      ],
      [
        "▁ödülü",
        -8.741058757000046
      ],
      [
        "▁beş",
        -8.744455121240911
      ],
      [
        "▁merkezine",
        -8.745377807812348
      ],
      [
        "larından",
        -8.747965171908573
      ],
      [
        "▁gelir",
        -8.748538939412366
      ],
      [
        "ton",
        -8.75448753679654
      ],
      [
        "▁sonucu",
        -8.760706624409437
      ],
      [
        "▁döneminde",
        -8.764784360046669
      ],
      [
        "▁hizmet",
        -8.767377289638336
      ],
      [
        "▁dolayı",
        -8.767937784750327
      ],
      [
        "▁beyaz",
        -8.769339375537857
      ],
      [
        "▁merkez",
        -8.770780406757227
      ],
      [
        "▁etmiştir",
        -8.77104435720975
      ],
      [
        "▁olmayan",
        -8.773021981773129
      ],
      [
        "▁neden",
        -8.773354854751032
      ],
      [
        "▁italya",
        -8.78121641432255
      ],
      [
        "▁genç",
        -8.784019265700966
      ],
      [
        "▁verilen",
        -8.787085477869388
      ],
      [
        "▁profesyonel",
        -8.789211167081566
      ],
      [
        "▁askeri",
        -8.789911960766016
      ],
      [
        "▁altın",
        -8.79140077496415
      ],
      [
        "▁dışında",
        -8.79530529271282
      ],
      [
        "▁bütün",
        -8.79615601891101
      ],
      [
        "▁sonraki",
        -8.796980763769156
      ],
      [
        "▁dizi",
        -8.79731093780919
      ],
      [
        "▁var",
        -8.798457406234242
      ],
      [
        "▁ingiltere",
        -8.802071451315127
      ],
      [
        "▁karar",
        -8.802115138209622
      ],
      [
        "▁amerikalı",
        -8.805010714341073
      ],
      [
        "▁yarı",
        -8.808127632480913
      ],
      [
        "su",
        -8.808778363997893
      ],
      [
        "▁ifade",
        -8.815874350734534
      ],
      [
        "▁gol",
        -8.816397164293045
      ],
      [
        "▁bilgi",
        -8.817985683798183
      ],
      [
        "▁anadolu",
        -8.820453812745267
      ],
      [
        "▁bölge",
        -8.824301038367576
      ],
      [
        "▁çocuk",
        -8.82494980042006
      ],
      [
        "▁dönemde",
        -8.825478198807907
      ],
      [
        "▁olur",
        -8.825815792984661
      ],
      [
        "▁pek",
        -8.826760267159377
      ],
      [
        "▁altı",
        -8.827407766986198
      ],
      [
        "▁çoğu",
        -8.827495294430673
      ],
      [
        "▁birinci",
        -8.829130015963573
      ],
      [
        "▁aldığı",
        -8.831415991106041
      ],
      [
        "▁temsil",
        -8.831830401472718
      ],
      [
        "▁erkek",
        -8.833702975463511
      ],
      [
        "▁rol",
        -8.835942194975953
      ],
      [
        "ç",
        -8.837704201081008
      ],
      [
        "▁sosyal",
        -8.838025525946673
      ],
      [
        "▁yanı",
        -8.83843932116783
      ],
      [
        "spor",
        -8.839454665600895
      ],
      [
        "▁ordu",
        -8.840502586979031
      ],
      [
        "▁sistemi",
        -8.846222798002875
      ],
      [
        "▁itibarıyla",
        -8.852770026564231
      ],
      [
        "▁ali",
        -8.852966615628144
      ],
      [
        "▁alır",
        -8.853627019224648
      ],
      [
        "▁yerel",
        -8.86136907632127
      ],
      [
        "▁sanat",
        -8.861743338680325
      ],
      [
        "▁mücadele",
        -8.863917634176225
      ],
      [
        "▁kalan",
        -8.865118608216163
      ],
      [
        "▁günümüzde",
        -8.866342837955708
      ],
      [
        "▁bey",
        -8.871366044986193
      ],
      [
        "▁yaşında",
        -8.871879058993162
      ],
      [
        "▁konu",
        -8.874718683615162
      ],
      [
        "▁etmek",
        -8.877031801334784
      ],
      [
        "▁imparatorluğu",
        -8.878058155263023
      ],
      [
        "um",
        -8.878489754892136
      ],
      [
        "ik",
        -8.884644395700068
      ],
      [
        "▁kaldı",
        -8.885400327983948
      ],
      [
        "▁geniş",
        -8.888164516294534
      ],
      [
        "▁formula",
        -8.891551918117798
      ],
      [
        "▁televizyon",
        -8.891821946896616
      ],
      [
        "▁buna",
        -8.89658969854009
      ],
      [
        "▁yapılmış",
        -8.898644983896801
      ],
      [
        "son",
        -8.899115396804415
      ],
      [
        "▁edilir",
        -8.90299368128825
      ],
      [
        "▁hemen",
        -8.903699571883447
      ],
      [
        "▁yıllarında",
        -8.903927003619067
      ],
      [
        "▁beraber",
        -8.905109210073002
      ],
      [
        "sal",
        -8.908262677393763
      ],
      [
        "larında",
        -8.910129102865564
      ],
      [
        "ndaki",
        -8.911816069208246
      ],
      [
        "▁resmi",
        -8.913468003940691
      ],
      [
        "▁örneğin",
        -8.913548527314909
      ],
      [
        "▁hayatı",
        -8.916548499204865
      ],
      [
        "▁oyun",
        -8.917132300719482
      ],
      [
        "î",
        -8.918751708678226
      ],
      [
        "▁söz",
        -8.919886915201223
      ],
      [
        "ba",
        -8.922145767294555
      ],
      [
        "miştir",
        -8.926908460937046
      ],
      [
        "▁forma",
        -8.929692721536039
      ],
      [
        "ngc",
        -8.931881271065054
      ],
      [
        "▁bulunduğu",
        -8.93328704104654
      ],
      [
        "at",
        -8.933289854787159
      ],
      [
        "▁yaz",
        -8.933658848687925
      ],
      [
        "▁transfer",
        -8.93558676750721
      ],
      [
        "▁dış",
        -8.936474299898942
      ],
      [
        "▁yapımı",
        -8.93726863024791
      ],
      [
        "▁isimli",
        -8.93774516770809
      ],
      [
        "▁bölgesi",
        -8.937924214276066
      ],
      [
        "▁katıldı",
        -8.939064801158151
      ],
      [
        "▁ün",
        -8.939345033901
      ],
      [
        "▁yazar",
        -8.94001163712948
      ],
      [
        "ge",
        -8.943514931740268
      ],
      [
        "▁saat",
        -8.944310118575643
      ],
      [
        "▁yönetim",
        -8.947755114851585
      ],
      [
        "ek",
        -8.949564737926735
      ],
      [
        "▁sezonu",
        -8.950298275131308
      ],
      [
        "j",
        -8.952580802740645
      ],
      [
        "▁tarih",
        -8.952586984134609
      ],
      [
        "▁siyasi",
        -8.955003042498276
      ],
      [
        "▁hareket",
        -8.95805524279857
      ],
      [
        "▁içerisinde",
        -8.960058702336362
      ],
      [
        "▁ordusu",
        -8.961046614014888
      ],
      [
        "▁oynadı",
        -8.961117521675568
      ],
      [
        "▁kurulan",
        -8.96383124573826
      ],
      [
        "lerinde",
        -8.966361808827585
      ],
      [
        "▁şehri",
        -8.971587160217403
      ],
      [
        "▁yayın",
        -8.971982026157418
      ],
      [
        "▁bölümü",
        -8.97213465670073
      ],
      [
        "▁geçen",
        -8.972753535626925
      ],
      [
        "▁böylece",
        -8.972762249213961
      ],
      [
        "▁yapı",
        -8.973030626915266
      ],
      [
        "▁metre",
        -8.975458371941672
      ],
      [
        "▁ünlü",
        -8.975689426399757
      ],
      [
        "▁bölüm",
        -8.97988453496926
      ],
      [
        "▁ön",
        -8.979933054936676
      ],
      [
        "▁gerçek",
        -8.983538947860824
      ],
      [
        "▁şeklinde",
        -8.986664642411235
      ],
      [
        "köydür",
        -8.99088402517403
      ],
      [
        "▁para",
        -8.992703310434456
      ],
      [
        "▁video",
        -8.993677480470122
      ],
      [
        "to",
        -8.99463649375364
      ],
      [
        "▁sovyet",
        -8.997455207910978
      ],
      [
        "▁kullanılır",
        -8.99872209543623
      ],
      [
        "▁kültür",
        -8.999673475873983
      ],
      [
        "▁yüzyılda",
        -9.002021499656328
      ],
      [
        "▁ingilizce",
        -9.004026996029552
      ],
      [
        "▁çalıştı",
        -9.004735103838708
      ],
      [
        "▁john",
        -9.005122455976107
      ],
      [
        "▁bilim",
        -9.006960520769336
      ],
      [
        "futbolcudur",
        -9.007364263285073
      ],
      [
        "ça",
        -9.009359819959219
      ],
      [
        "▁yaygın",
        -9.011118291780834
      ],
      [
        "▁günü",
        -9.012772038166842
      ],
      [
        "▁final",
        -9.015507789307218
      ],
      [
        "▁sahne",
        -9.01622970071919
      ],
      [
        "▁ayrı",
        -9.016325865255217
      ],
      [
        "▁ayında",
        -9.020132352955457
      ],
      [
        "▁benzer",
        -9.022033083303839
      ],
      [
        "▁afrika",
        -9.022825926307366
      ],
      [
        "▁yıllarda",
        -9.025635200877261
      ],
      [
        "▁san",
        -9.025646873437317
      ],
      [
        "▁yıllık",
        -9.02910977261053
      ],
      [
        "▁baş",
        -9.029458397651073
      ],
      [
        "ndeki",
        -9.03090707519813
      ],
      [
        "▁sahibi",
        -9.034749804539043
      ],
      [
        "▁and",
        -9.035221736050735
      ],
      [
        "▁sultan",
        -9.036842987401764
      ],
      [
        "▁paris",
        -9.038597630490347
      ],
      [
        "▁doğdu",
        -9.040792751408718
      ],
      [
        "▁he",
        -9.041737198971767
      ],
      [
        "▁herhangi",
        -9.042317280875826
      ],
      [
        "▁biridir",
        -9.04383863388768
      ],
      [
        "▁york",
        -9.044744468868425
      ],
      [
        "liği",
        -9.04487016350739
      ],
      [
        "▁yaşayan",
        -9.045154806847174
      ],
      [
        "▁başarılı",
        -9.047784234873108
      ],
      [
        "sını",
        -9.049164063207579
      ],
      [
        "▁mısır",
        -9.050392571691505
      ],
      [
        "▁maçta",
        -9.05202540701963
      ],
      [
        "▁ona",
        -9.052859791497589
      ],
      [
        "▁sayıda",
        -9.05361804239833
      ],
      [
        "ip",
        -9.053884480558766
      ],
      [
        "▁azerbaycan",
        -9.055868873023696
      ],
      [
        "▁geçti",
        -9.056920925770823
      ],
      [
        "han",
        -9.05995613420947
      ],
      [
        "▁köyün",
        -9.060103730458176
      ],
      [
        "▁kurulu",
        -9.060713046233658
      ],
      [
        "▁yanında",
        -9.0664153757791
      ],
      [
        "▁girdi",
        -9.06710412490771
      ],
      [
        "▁iran",
        -9.067201495832661
      ],
      [
        "▁sık",
        -9.069766894571584
      ],
      [
        "▁ek",
        -9.070191271201915
      ],
      [
        "▁dil",
        -9.07150195937613
      ],
      [
        "▁sinema",
        -9.074671896164837
      ],
      [
        "▁ülkenin",
        -9.078523808725224
      ],
      [
        "ro",
        -9.083480776021252
      ],
      [
        "▁kız",
        -9.087802568298674
      ],
      [
        "▁sayı",
        -9.08789013921875
      ],
      [
        "▁değil",
        -9.0879703084685
      ],
      [
        "▁alanı",
        -9.08805567476364
      ],
      [
        "▁düzenlenen",
        -9.088574276132341
      ],
      [
        "▁ismi",
        -9.090817099376531
      ],
      [
        "za",
        -9.092905221950558
      ],
      [
        "▁modern",
        -9.09370817889026
      ],
      [
        "▁araştırma",
        -9.095769888463117
      ],
      [
        "mi",
        -9.095852822562449
      ],
      [
        "▁ettiği",
        -9.099480056464731
      ],
      [
        "▁tiyatro",
        -9.10010615203806
      ],
      [
        "▁öldü",
        -9.101129468489232
      ],
      [
        "lü",
        -9.102230145035303
      ],
      [
        "▁bakanlığı",
        -9.103431318625757
      ],
      [
        "▁güçlü",
        -9.105808833410578
      ],
      [
        "oldukça",
        -9.106804442905572
      ],
      [
        "▁tür",
        -9.106836979863441
      ],
      [
        "iline",
        -9.110225575384412
      ],
      [
        "▁iddia",
        -9.112445024399376
      ],
      [
        "▁yılından",
        -9.112599102277754
      ],
      [
        "cı",
        -9.113545662858302
      ],
      [
        "▁piyasa",
        -9.11589620212627
      ],
      [
        "▁vardı",
        -9.117465598894894
      ],
      [
        "▁spor",
        -9.118945850000964
      ],
      [
        "▁yani",
        -9.121430274690658
      ],
      [
        "▁tespit",
        -9.121781121578547
      ],
      [
        "▁ortak",
        -9.124250713170726
      ],
      [
        "&",
        -9.126524186858422
      ],
      [
        "▁çalışma",
        -9.12749248310121
      ],
      [
        "▁şampiyonası",
        -9.128829277797136
      ],
      [
        "▁cm",
        -9.129161047600851
      ],
      [
        "▁çıkar",
        -9.130135881473432
      ],
      [
        "▁amp",
        -9.130747385757493
      ],
      [
        "▁başlayan",
        -9.130985393141794
      ],
      [
        "▁enerji",
        -9.131012103725592
      ],
      [
        "▁hiçbir",
        -9.1338605328619
      ],
      [
        "▁yardım",
        -9.13477279048734
      ],
      [
        "▁fakültesi",
        -9.136450488246757
      ],
      [
        "ter",
        -9.13660771608111
      ],
      [
        "▁sanatçı",
        -9.139025353236136
      ],
      [
        "▁önceki",
        -9.14231704116421
      ],
      [
        "▁haline",
        -9.142967300652876
      ],
      [
        "▁mö",
        -9.144870376469292
      ],
      [
        "▁sonrasında",
        -9.150613674404598
      ],
      [
        "▁başına",
        -9.151649394407295
      ],
      [
        "▁parçası",
        -9.154426071603847
      ],
      [
        "▁ilan",
        -9.160115261818092
      ],
      [
        "▁kulüp",
        -9.16434443923163
      ],
      [
        "il",
        -9.16469136192903
      ],
      [
        "▁yılına",
        -9.164738984059943
      ],
      [
        "▁uygun",
        -9.166956159402938
      ],
      [
        "▁saldırı",
        -9.167327108201468
      ],
      [
        "▁anlamına",
        -9.167466846025581
      ],
      [
        "▁kuvvetleri",
        -9.168129158634189
      ],
      [
        "▁adet",
        -9.169428288739992
      ],
      [
        "▁serbest",
        -9.173525882955095
      ],
      [
        "▁kitap",
        -9.173765649039739
      ],
      [
        "▁güç",
        -9.175759713733475
      ],
      [
        "▁başlamıştır",
        -9.177807588575401
      ],
      [
        "▁mezun",
        -9.179083425673117
      ],
      [
        "▁sayısı",
        -9.17916840493164
      ],
      [
        "▁bulundu",
        -9.180907721202326
      ],
      [
        "▁ekonomik",
        -9.18102789546133
      ],
      [
        "▁kendisi",
        -9.181095007308441
      ],
      [
        "▁şarkısı",
        -9.18119511021513
      ],
      [
        "▁düşük",
        -9.1821297339024
      ],
      [
        "▁yarışması",
        -9.185258057360441
      ],
      [
        "▁konusunda",
        -9.18890290488945
      ],
      [
        "▁olabilir",
        -9.192514145217286
      ],
      [
        "▁başında",
        -9.196123895641808
      ],
      [
        "▁j",
        -9.196279326647263
      ],
      [
        "▁izin",
        -9.19721883508047
      ],
      [
        "▁ispanya",
        -9.198860528780617
      ],
      [
        "▁çünkü",
        -9.200705728871723
      ],
      [
        "köy",
        -9.201853880448928
      ],
      [
        "ını",
        -9.202692878339647
      ],
      [
        "▁tip",
        -9.202957007566198
      ],
      [
        "lardır",
        -9.203273479571934
      ],
      [
        "▁güneş",
        -9.204540304021277
      ],
      [
        "▁kardeşi",
        -9.20497571265195
      ],
      [
        "▁etmektedir",
        -9.206247204374703
      ],
      [
        "▁sonucunda",
        -9.206914080335391
      ],
      [
        "▁krallık",
        -9.20732386796482
      ],
      [
        "▁bunu",
        -9.209081071324633
      ],
      [
        "▁yıldız",
        -9.209173264933563
      ],
      [
        "▁filmin",
        -9.209591710031756
      ],
      [
        "▁kızı",
        -9.210353032873488
      ],
      [
        "▁değildir",
        -9.211877518983403
      ],
      [
        "▁yerleşim",
        -9.215210419249589
      ],
      [
        "▁doğal",
        -9.216095429982303
      ],
      [
        "▁bağımsız",
        -9.217766958011529
      ],
      [
        "▁hafta",
        -9.217838186861412
      ],
      [
        "▁amacıyla",
        -9.220378582729923
      ],
      [
        "▁ağır",
        -9.221709059607763
      ],
      [
        "ley",
        -9.222474868129787
      ],
      [
        "ko",
        -9.222892041943352
      ],
      [
        "▁to",
        -9.223804076665047
      ],
      [
        "mış",
        -9.224244716706211
      ],
      [
        "▁şarkıcı",
        -9.225702408296563
      ],
      [
        "ha",
        -9.226470772826987
      ],
      [
        "inin",
        -9.227467681399315
      ],
      [
        "▁konusu",
        -9.229246592295809
      ],
      [
        "▁durum",
        -9.23032808179741
      ],
      [
        "ir",
        -9.232611780131345
      ],
      [
        "▁yok",
        -9.232936868789489
      ],
      [
        "▁japonya",
        -9.233689238263807
      ],
      [
        "▁süper",
        -9.234189162393157
      ],
      [
        "▁bugün",
        -9.235689252961151
      ],
      [
        "▁aile",
        -9.235941166457375
      ],
      [
        "▁veren",
        -9.23674216082864
      ],
      [
        "▁nehri",
        -9.237354100110474
      ],
      [
        "▁yaşam",
        -9.238225698906392
      ],
      [
        "▁kontrol",
        -9.241993663750623
      ],
      [
        "▁başkanlığı",
        -9.243554944942549
      ],
      [
        "▁maç",
        -9.244759288305112
      ],
      [
        "▁yardımcı",
        -9.24493305899179
      ],
      [
        "co",
        -9.245714602943929
      ],
      [
        "▁ses",
        -9.246048621790772
      ],
      [
        "▁dünyanın",
        -9.250006154457932
      ],
      [
        "ch",
        -9.250051085187469
      ],
      [
        "▁sağ",
        -9.250682351920211
      ],
      [
        "▁çalışmaları",
        -9.252898102370207
      ],
      [
        "▁iken",
        -9.25309649062068
      ],
      [
        "▁islam",
        -9.253334015120425
      ],
      [
        "▁bunlar",
        -9.25846306573727
      ],
      [
        "▁seçildi",
        -9.258762962575227
      ],
      [
        "▁bile",
        -9.259525727573623
      ],
      [
        "▁top",
        -9.260082838207948
      ],
      [
        "▁israil",
        -9.261329873967997
      ],
      [
        "▁izmir",
        -9.262569584887506
      ],
      [
        "lan",
        -9.262968900015622
      ],
      [
        "land",
        -9.26357767375909
      ],
      [
        "▁yana",
        -9.264443164989403
      ],
      [
        "▁başarı",
        -9.266828190207786
      ],
      [
        "▁kral",
        -9.271535889197992
      ],
      [
        "▁tamamen",
        -9.272680448428124
      ],
      [
        "▁defa",
        -9.272741958950935
      ],
      [
        "▁yayınlanan",
        -9.27290837033409
      ],
      [
        "▁idari",
        -9.27316919532913
      ],
      [
        "▁galaksi",
        -9.273259604073743
      ],
      [
        "▁çift",
        -9.274792235459532
      ],
      [
        "▁türkçe",
        -9.275027593214178
      ],
      [
        "meydana",
        -9.275779287397839
      ],
      [
        "ıp",
        -9.276398648854041
      ],
      [
        "▁şirketi",
        -9.281497126335779
      ],
      [
        "len",
        -9.284993185139053
      ],
      [
        "▁listesi",
        -9.285444193357552
      ],
      [
        "sen",
        -9.286058266621149
      ],
      [
        "çi",
        -9.286365432368212
      ],
      [
        "▁yalnızca",
        -9.289071566182017
      ],
      [
        "▁han",
        -9.292141689679356
      ],
      [
        "▁yunan",
        -9.292979141297838
      ],
      [
        "▁yaşamı",
        -9.293475590956069
      ],
      [
        "▁yönünde",
        -9.29413535089194
      ],
      [
        "▁hukuk",
        -9.294651798459284
      ],
      [
        "yu",
        -9.29510729563581
      ],
      [
        "▁şirket",
        -9.296671766905733
      ],
      [
        "▁devleti",
        -9.297705483713589
      ],
      [
        "▁al",
        -9.29787763842991
      ],
      [
        "▁bizans",
        -9.299820980706947
      ],
      [
        "▁edilmiş",
        -9.301611660358782
      ],
      [
        "▁kötü",
        -9.301874171156198
      ],
      [
        "▁yedi",
        -9.302512875038131
      ],
      [
        "▁kariyerine",
        -9.30255530984342
      ],
      [
        "ır",
        -9.302785173728179
      ],
      [
        "▁bölgesinde",
        -9.306484233923086
      ],
      [
        "▁yahudi",
        -9.306768290813736
      ],
      [
        "ov",
        -9.307631090710462
      ],
      [
        "▁erken",
        -9.308202432834468
      ],
      [
        "st",
        -9.309128119828854
      ],
      [
        "▁asya",
        -9.314810768460474
      ],
      [
        "▁aday",
        -9.315166810587524
      ],
      [
        "▁ederek",
        -9.316923000386058
      ],
      [
        "▁londra",
        -9.318796708522873
      ],
      [
        "▁sona",
        -9.319103122144291
      ],
      [
        "▁japon",
        -9.321111415770831
      ],
      [
        "▁içeren",
        -9.32214241868245
      ],
      [
        "▁kralı",
        -9.322938347230549
      ],
      [
        "▁can",
        -9.32306641740257
      ],
      [
        "▁destek",
        -9.324085468227452
      ],
      [
        "▁ten",
        -9.32439596593605
      ],
      [
        "▁döndü",
        -9.326628741471298
      ],
      [
        "▁hızlı",
        -9.329568452604457
      ],
      [
        "▁aşağıdaki",
        -9.332328556366912
      ],
      [
        "▁arka",
        -9.334534393151511
      ],
      [
        "▁nedenle",
        -9.335295129065322
      ],
      [
        "▁kurulmuştur",
        -9.335594280463205
      ],
      [
        "▁kendisine",
        -9.336173531127772
      ],
      [
        "▁başkenti",
        -9.3373199378792
      ],
      [
        "▁tv",
        -9.337562847447515
      ],
      [
        "▁kısmı",
        -9.337582348989546
      ],
      [
        "▁ticaret",
        -9.337838106601552
      ],
      [
        "▁sol",
        -9.339403664920534
      ],
      [
        "▁parça",
        -9.340636420425605
      ],
      [
        "▁şey",
        -9.34171767824867
      ],
      [
        "▁üzerinden",
        -9.343110848497103
      ],
      [
        "▁grubun",
        -9.343834435293038
      ],
      [
        "▁sonrası",
        -9.34543383163016
      ],
      [
        "▁başlar",
        -9.345516253126698
      ],
      [
        "▁geleneksel",
        -9.349674295282478
      ],
      [
        "▁tanrı",
        -9.35090106548895
      ],
      [
        "mak",
        -9.352237438458989
      ],
      [
        "▁ben",
        -9.352617311844492
      ],
      [
        "▁be",
        -9.35268650608652
      ],
      [
        "▁zorunda",
        -9.353025718262181
      ],
      [
        "maktadır",
        -9.355605490281183
      ],
      [
        "▁maçı",
        -9.3558602158108
      ],
      [
        "▁rock",
        -9.359732672231042
      ],
      [
        "▁oluşur",
        -9.360439608936458
      ],
      [
        "▁yayınlandı",
        -9.361187630473697
      ],
      [
        "▁co",
        -9.361653605734086
      ],
      [
        "ova",
        -9.361917218433524
      ],
      [
        "▁göz",
        -9.362122481884555
      ],
      [
        "▁hale",
        -9.362232757408536
      ],
      [
        "ja",
        -9.362425283168053
      ],
      [
        "▁mustafa",
        -9.363342907089452
      ],
      [
        "▁alarak",
        -9.363733390321759
      ],
      [
        "▁artık",
        -9.364784666432922
      ],
      [
        "▁dikkat",
        -9.365510281980045
      ],
      [
        "+",
        -9.365682573993338
      ],
      [
        "▁olsa",
        -9.36597890671116
      ],
      [
        "▁cumhuriyet",
        -9.366888407222069
      ],
      [
        "▁çalışan",
        -9.367667303724224
      ],
      [
        "▁ara",
        -9.36844717716751
      ],
      [
        "▁sarı",
        -9.368978593339769
      ],
      [
        "▁anda",
        -9.369857340966654
      ],
      [
        "▁okulu",
        -9.371647488262878
      ],
      [
        "▁savunma",
        -9.373195209468495
      ],
      [
        "▁gemi",
        -9.373714590232577
      ],
      [
        "▁maçında",
        -9.373937119683509
      ],
      [
        "▁dönemi",
        -9.376243096814246
      ],
      [
        "▁mehmet",
        -9.377304675323435
      ],
      [
        "▁derece",
        -9.377525149558593
      ],
      [
        "▁olmuş",
        -9.377744588686607
      ],
      [
        "ga",
        -9.384856590959044
      ],
      [
        "▁annesi",
        -9.384911110979184
      ],
      [
        "▁verildi",
        -9.385069197611985
      ],
      [
        "▁eyaletinde",
        -9.38557939345111
      ],
      [
        "▁single",
        -9.388222232295233
      ],
      [
        "▁bilinir",
        -9.388414191058166
      ],
      [
        "▁roman",
        -9.389339586789712
      ],
      [
        "▁tipi",
        -9.389558211498858
      ],
      [
        "▁yüzyıl",
        -9.389683287703013
      ],
      [
        "!",
        -9.38976275737862
      ],
      [
        "lerdir",
        -9.390619710279651
      ],
      [
        "▁kaliforniya",
        -9.3906213107745
      ],
      [
        "▁kırmızı",
        -9.391912732989375
      ],
      [
        "▁yapmış",
        -9.392953853304954
      ],
      [
        "▁kuruldu",
        -9.393611286787115
      ],
      [
        "gi",
        -9.395844958266316
      ],
      [
        "▁arap",
        -9.396123883274008
      ],
      [
        "ah",
        -9.397827137904338
      ],
      [
        "▁antik",
        -9.399793382289015
      ],
      [
        "▁verdiği",
        -9.400190288491807
      ],
      [
        "th",
        -9.400796310219615
      ],
      [
        "olmasına",
        -9.401376886988114
      ],
      [
        "▁italyan",
        -9.401985273186838
      ],
      [
        "▁dr",
        -9.402164002933967
      ],
      [
        "▁yazarı",
        -9.40216669664405
      ],
      [
        "▁din",
        -9.405760033422704
      ],
      [
        "▁no",
        -9.405862822218381
      ],
      [
        "go",
        -9.406291381088314
      ],
      [
        "▁yüzyılın",
        -9.407261356236182
      ],
      [
        "▁güzel",
        -9.407853353412808
      ],
      [
        "▁sağlık",
        -9.408393612725039
      ],
      [
        "▁örnek",
        -9.413077883557447
      ],
      [
        "▁suriye",
        -9.413420320024535
      ],
      [
        "mm",
        -9.413752378170507
      ],
      [
        "▁madalya",
        -9.414621487248228
      ],
      [
        "▁ileri",
        -9.414951837840649
      ],
      [
        "▁yapıldı",
        -9.415711886403441
      ],
      [
        "▁ölümü",
        -9.41783186095068
      ],
      [
        "▁avusturya",
        -9.419741040499359
      ],
      [
        "▁ödülleri",
        -9.420361651766468
      ],
      [
        "▁eurovision",
        -9.420526952502097
      ],
      [
        "▁gece",
        -9.42141936460153
      ],
      [
        "▁ailesi",
        -9.421707300693718
      ],
      [
        "▁sovyetler",
        -9.422707840037791
      ],
      [
        "▁ilçesi",
        -9.422756820997797
      ],
      [
        "▁göç",
        -9.42297280172777
      ],
      [
        "▁popüler",
        -9.423014293059145
      ],
      [
        "siz",
        -9.423083947088926
      ],
      [
        "▁üniversite",
        -9.426148402406774
      ],
      [
        "▁yaş",
        -9.426718162428491
      ],
      [
        "it",
        -9.427437505502969
      ],
      [
        "▁kitabı",
        -9.428122524091668
      ],
      [
        "lığı",
        -9.430334650746035
      ],
      [
        "▁isim",
        -9.436418047846454
      ],
      [
        "▁öz",
        -9.437087468936644
      ],
      [
        "▁van",
        -9.438160346309662
      ],
      [
        "mer",
        -9.438559414500155
      ],
      [
        "unu",
        -9.438980851881992
      ],
      [
        "ur",
        -9.439351267469368
      ],
      [
        "▁eğitimi",
        -9.4394051390314
      ],
      [
        "der",
        -9.44150265309697
      ],
      [
        "▁bununla",
        -9.441833327176512
      ],
      [
        "▁bölgede",
        -9.442424381819123
      ],
      [
        "▁başkan",
        -9.44293332724621
      ],
      [
        "▁kadınlar",
        -9.443288834964516
      ],
      [
        "▁arkadaşı",
        -9.444840482011776
      ],
      [
        "▁eğer",
        -9.445963577163372
      ],
      [
        "▁veri",
        -9.446047459330416
      ],
      [
        "▁oyunu",
        -9.4494724212857
      ],
      [
        "▁seçim",
        -9.45049601266788
      ],
      [
        "▁güvenlik",
        -9.450538904464233
      ],
      [
        "▁sayımın",
        -9.450901558356072
      ],
      [
        "iye",
        -9.453873838960162
      ],
      [
        "▁yeşil",
        -9.454142679195138
      ],
      [
        "▁günümüz",
        -9.454927410086281
      ],
      [
        "▁satın",
        -9.456201687132834
      ],
      [
        "nce",
        -9.459836466299299
      ],
      [
        "▁yabancı",
        -9.461586648680441
      ],
      [
        "▁siyasetçi",
        -9.461721409727371
      ],
      [
        "▁radyo",
        -9.46252704838361
      ],
      [
        "▁verir",
        -9.46305712922101
      ],
      [
        "▁resmî",
        -9.463939716425939
      ],
      [
        "▁kendini",
        -9.466398857182758
      ],
      [
        "ol",
        -9.466666291377114
      ],
      [
        "▁bakanı",
        -9.467391742008086
      ],
      [
        "▁galatasaray",
        -9.468287549697374
      ],
      [
        "▁ışık",
        -9.468515463585621
      ],
      [
        "▁uzay",
        -9.470191281877552
      ],
      [
        "leriyle",
        -9.47049788326605
      ],
      [
        "▁yerli",
        -9.471801883745234
      ],
      [
        "▁basketbol",
        -9.473306166949104
      ],
      [
        "▁diye",
        -9.474291904190682
      ],
      [
        "▁ülkede",
        -9.474929409331246
      ],
      [
        "▁türü",
        -9.476342147962605
      ],
      [
        "▁asker",
        -9.4766595084473
      ],
      [
        "▁dördüncü",
        -9.476873492286392
      ],
      [
        "▁adam",
        -9.477200818377574
      ],
      [
        "▁milletvekili",
        -9.478269277014382
      ],
      [
        "▁arası",
        -9.479802130534361
      ],
      [
        "▁çevre",
        -9.479884926455625
      ],
      [
        "▁kent",
        -9.48044986275439
      ],
      [
        "▁ölüm",
        -9.482219172692947
      ],
      [
        "▁yoğun",
        -9.482469463456077
      ],
      [
        "▁yu",
        -9.483190796858935
      ],
      [
        "sinin",
        -9.483690967603989
      ],
      [
        "▁fenerbahçe",
        -9.4840059660161
      ],
      [
        "tepe",
        -9.484231745809938
      ],
      [
        "▁hiç",
        -9.485092993479395
      ],
      [
        "tu",
        -9.486025397517546
      ],
      [
        "liğe",
        -9.486199230216213
      ],
      [
        "inde",
        -9.48671001963518
      ],
      [
        "▁windows",
        -9.486743505811015
      ],
      [
        "▁giriş",
        -9.488841282266325
      ],
      [
        "▁metal",
        -9.489084517769978
      ],
      [
        "▁yunanistan",
        -9.489512987379323
      ],
      [
        "▁avustralya",
        -9.489656292262259
      ],
      [
        "▁dili",
        -9.489849298796033
      ],
      [
        "iz",
        -9.490377874998332
      ],
      [
        "▁dönemin",
        -9.491070517910508
      ],
      [
        "luk",
        -9.492489104514323
      ],
      [
        "▁alanında",
        -9.492666795402041
      ],
      [
        "▁demir",
        -9.494196379101624
      ],
      [
        "▁gitti",
        -9.494895490159829
      ],
      [
        "▁söyledi",
        -9.495712047967025
      ],
      [
        "gen",
        -9.49627377730821
      ],
      [
        "▁polonya",
        -9.497551316268499
      ],
      [
        "mektedir",
        -9.497978863662798
      ],
      [
        "▁belirli",
        -9.498255249825695
      ],
      [
        "▁sürekli",
        -9.498326651676754
      ],
      [
        "?",
        -9.498633682412581
      ],
      [
        "▁kanada",
        -9.499363446300714
      ],
      [
        "▁kulübü",
        -9.500229112195509
      ],
      [
        "▁klasik",
        -9.501035292747115
      ],
      [
        "▁bunların",
        -9.501947710751779
      ],
      [
        "▁yolu",
        -9.50222477065485
      ],
      [
        "▁karşısında",
        -9.502654692629998
      ],
      [
        "▁içerir",
        -9.504112518038504
      ],
      [
        "▁normal",
        -9.504270445982534
      ],
      [
        "▁bilgisayar",
        -9.504894128636979
      ],
      [
        "▁kore",
        -9.506113844836909
      ],
      [
        "▁yılın",
        -9.507724729047673
      ],
      [
        "ver",
        -9.50774475743199
      ],
      [
        "▁yılının",
        -9.508889258900144
      ],
      [
        "▁mevcut",
        -9.510711989539548
      ],
      [
        "▁bazen",
        -9.511130666872795
      ],
      [
        "▁stüdyo",
        -9.512220228912279
      ],
      [
        "▁elektrik",
        -9.512588699805665
      ],
      [
        "▁adına",
        -9.513591483457718
      ],
      [
        "bi",
        -9.513959430702705
      ],
      [
        "▁birisi",
        -9.515165208207002
      ],
      [
        "▁tarihli",
        -9.515181223607366
      ],
      [
        "▁model",
        -9.5153272755401
      ],
      [
        "ması",
        -9.516536235943784
      ],
      [
        "▁ilçesinde",
        -9.51743406144638
      ],
      [
        "▁saha",
        -9.517680348952387
      ],
      [
        "▁zor",
        -9.517842820209573
      ],
      [
        "▁mo",
        -9.51858869648674
      ],
      [
        "▁yönelik",
        -9.519327263804007
      ],
      [
        "▁kasaba",
        -9.52233922203379
      ],
      [
        "▁görevi",
        -9.522565717113798
      ],
      [
        "▁canlı",
        -9.524708840339398
      ],
      [
        "▁dair",
        -9.525816754815256
      ],
      [
        "▁yoktur",
        -9.526019773480549
      ],
      [
        "▁yarışma",
        -9.526223452859286
      ],
      [
        "▁dizisi",
        -9.526482811186437
      ],
      [
        "larıyla",
        -9.528170390443478
      ],
      [
        "▁kazanan",
        -9.52919078728385
      ],
      [
        "▁yazdığı",
        -9.529410743374608
      ],
      [
        "▁halinde",
        -9.529718900983568
      ],
      [
        "▁sayesinde",
        -9.530621924692891
      ],
      [
        "▁oyuncusu",
        -9.53186961040058
      ],
      [
        "▁mümkün",
        -9.53339185441072
      ],
      [
        "▁hatta",
        -9.534274795329216
      ],
      [
        "▁ııı",
        -9.534334692377508
      ],
      [
        "▁county",
        -9.535003856077816
      ],
      [
        "▁ortalama",
        -9.536006017330692
      ],
      [
        "ger",
        -9.536627426785772
      ],
      [
        "lanmıştır",
        -9.536672342822976
      ],
      [
        "▁barış",
        -9.537438494470933
      ],
      [
        "miş",
        -9.539946787790726
      ],
      [
        "▁yönetimi",
        -9.54031119049454
      ],
      [
        "▁etki",
        -9.543615943823788
      ],
      [
        "▁cami",
        -9.54622781907287
      ],
      [
        "â",
        -9.546678871747835
      ],
      [
        "▁hollanda",
        -9.547279549951014
      ],
      [
        "▁edilmektedir",
        -9.547443335472373
      ],
      [
        "▁sistem",
        -9.547640149727266
      ],
      [
        "▁madde",
        -9.548004920112676
      ],
      [
        "▁kurdu",
        -9.549786878648252
      ],
      [
        "▁siyah",
        -9.550010374536152
      ],
      [
        "▁hindistan",
        -9.550177670424794
      ],
      [
        "ji",
        -9.550344962915386
      ],
      [
        "una",
        -9.550467508828243
      ],
      [
        "▁üye",
        -9.55208692266735
      ],
      [
        "sız",
        -9.552167938959023
      ],
      [
        "▁seri",
        -9.556624788380695
      ],
      [
        "dünyaya",
        -9.556763606605651
      ],
      [
        "▁sene",
        -9.556974261143813
      ],
      [
        "▁albümün",
        -9.557142509342919
      ],
      [
        "▁orijinal",
        -9.558806963334417
      ],
      [
        "▁köyü",
        -9.559114019762683
      ],
      [
        "▁hak",
        -9.561226996815497
      ],
      [
        "▁kişinin",
        -9.561551452422407
      ],
      [
        "▁sınır",
        -9.564741806548033
      ],
      [
        "▁kızıl",
        -9.56481847096926
      ],
      [
        "▁so",
        -9.564841194335086
      ],
      [
        "▁kan",
        -9.565542518386218
      ],
      [
        "▁özellikleri",
        -9.566378329668678
      ],
      [
        "▁meclisi",
        -9.566390148735813
      ],
      [
        "▁kaynak",
        -9.567517806928945
      ],
      [
        "▁üzerindeki",
        -9.568357751087596
      ],
      [
        "▁hükûmet",
        -9.56912962132501
      ],
      [
        "▁öne",
        -9.572826193786069
      ],
      [
        "▁satış",
        -9.573687047150734
      ],
      [
        "▁takip",
        -9.575057694706786
      ],
      [
        "nca",
        -9.57579215561352
      ],
      [
        "▁puan",
        -9.577581694914896
      ],
      [
        "or",
        -9.578197597128279
      ],
      [
        "▁pop",
        -9.579783255010614
      ],
      [
        "ber",
        -9.580959938212036
      ],
      [
        "▁ekonomi",
        -9.582827928335558
      ],
      [
        "▁yüz",
        -9.584824484808465
      ],
      [
        "cu",
        -9.584848440766574
      ],
      [
        "ana",
        -9.58538333407351
      ],
      [
        "▁taş",
        -9.585921432381689
      ],
      [
        "▁yeri",
        -9.585997984807724
      ],
      [
        "men",
        -9.586081443633855
      ],
      [
        "▁durumda",
        -9.586263151254228
      ],
      [
        "▁park",
        -9.586511573913006
      ],
      [
        "kazanmıştır",
        -9.586779806989128
      ],
      [
        "▁kat",
        -9.587218819353197
      ],
      [
        "▁futbolcu",
        -9.587637476899962
      ],
      [
        "▁etme",
        -9.587918171970584
      ],
      [
        "▁krallığı",
        -9.588414026511948
      ],
      [
        "▁tarım",
        -9.589536989516429
      ],
      [
        "▁general",
        -9.591840607049452
      ],
      [
        "▁sözleşme",
        -9.592831435008614
      ],
      [
        "▁yazdı",
        -9.592940185949454
      ],
      [
        "▁kıbrıs",
        -9.594060314496154
      ],
      [
        "can",
        -9.594091012306622
      ],
      [
        "▁yazı",
        -9.595262002089155
      ],
      [
        "gelmiştir",
        -9.596905609915119
      ],
      [
        "▁ödül",
        -9.597007359379775
      ],
      [
        "▁oynanan",
        -9.597463013556524
      ],
      [
        "▁proje",
        -9.598195622437878
      ],
      [
        "lama",
        -9.598222609372737
      ],
      [
        "▁müslüman",
        -9.599984706527316
      ],
      [
        "gan",
        -9.600718815204068
      ],
      [
        "▁altına",
        -9.601336824287722
      ],
      [
        "▁william",
        -9.601343987753804
      ],
      [
        "dere",
        -9.601365428649622
      ],
      [
        "▁zengin",
        -9.601517079532252
      ],
      [
        "kan",
        -9.60269255469327
      ],
      [
        "▁at",
        -9.602723016385909
      ],
      [
        "▁web",
        -9.602831828255846
      ],
      [
        "▁plan",
        -9.602928216917109
      ],
      [
        "▁ahmet",
        -9.603155505223365
      ],
      [
        "▁olma",
        -9.603538580160167
      ],
      [
        "çe",
        -9.603909302764217
      ],
      [
        "▁koruma",
        -9.604028048024949
      ],
      [
        "▁ayrıldı",
        -9.604180201764425
      ],
      [
        "▁kurulmuş",
        -9.604958095839768
      ],
      [
        "▁taşıyan",
        -9.605157695551425
      ],
      [
        "▁yasa",
        -9.605554340536875
      ],
      [
        "▁etkisi",
        -9.606946844117884
      ],
      [
        "ul",
        -9.608419102744923
      ],
      [
        "▁kişilik",
        -9.608464818895685
      ],
      [
        "▁üretim",
        -9.608751722935017
      ],
      [
        "▁kilise",
        -9.60908800355196
      ],
      [
        "▁toprak",
        -9.609654371605036
      ],
      [
        "▁bitki",
        -9.609761159216646
      ],
      [
        "▁isveç",
        -9.61134424555247
      ],
      [
        "▁işgal",
        -9.612753156410937
      ],
      [
        "▁çocuğu",
        -9.612779852681475
      ],
      [
        "▁attı",
        -9.614372566777952
      ],
      [
        "▁bilimsel",
        -9.615258789780372
      ],
      [
        "▁karakter",
        -9.615962265435412
      ],
      [
        "▁sonuç",
        -9.617076463274097
      ],
      [
        "▁ili",
        -9.617446599351883
      ],
      [
        "▁doğan",
        -9.619444990910013
      ],
      [
        "▁mal",
        -9.620233522759486
      ],
      [
        "▁yapmak",
        -9.621906247521459
      ],
      [
        "▁finalde",
        -9.622095618488837
      ],
      [
        "▁meclis",
        -9.623683438607516
      ],
      [
        "▁kur",
        -9.623794240422345
      ],
      [
        "çıkmıştır",
        -9.624071280409153
      ],
      [
        "▁enstitüsü",
        -9.624615083493142
      ],
      [
        "▁gösteren",
        -9.624916522820886
      ],
      [
        "▁berlin",
        -9.625844161615037
      ],
      [
        "▁ziyaret",
        -9.626856602583148
      ],
      [
        "▁müziği",
        -9.626929372878202
      ],
      [
        "▁ilgi",
        -9.627732435110552
      ],
      [
        "▁muhammed",
        -9.627875119479125
      ],
      [
        "▁kendisini",
        -9.628190908235212
      ],
      [
        "▁do",
        -9.629711845503685
      ],
      [
        "▁doğrudan",
        -9.631704927604954
      ],
      [
        "▁sırasıyla",
        -9.632581535046576
      ],
      [
        "lo",
        -9.63334124381299
      ],
      [
        "tü",
        -9.634219968591767
      ],
      [
        "▁as",
        -9.634448136640875
      ],
      [
        "▁takımyıldızı",
        -9.634473023991182
      ],
      [
        "sının",
        -9.635072383467184
      ],
      [
        "▁eşi",
        -9.636125690883777
      ],
      [
        "▁ermeni",
        -9.636682178918537
      ],
      [
        "▁nasıl",
        -9.637838978182304
      ],
      [
        "▁durumu",
        -9.638656221930848
      ],
      [
        "▁tarihleri",
        -9.639340339222176
      ],
      [
        "sinde",
        -9.639616627389964
      ],
      [
        "ran",
        -9.639645780511962
      ],
      [
        "▁bölümünde",
        -9.639668580166727
      ],
      [
        "uefa",
        -9.640395287605921
      ],
      [
        "▁festivali",
        -9.643876454102758
      ],
      [
        "▁çoğunlukla",
        -9.64437613685268
      ],
      [
        "▁me",
        -9.645524278077726
      ],
      [
        "▁değer",
        -9.64585076554332
      ],
      [
        "▁açıkladı",
        -9.649581971651013
      ],
      [
        "eli",
        -9.64977897778454
      ],
      [
        "▁ırak",
        -9.650601688553929
      ],
      [
        "▁adında",
        -9.652933091639209
      ],
      [
        "▁fc",
        -9.653325991063124
      ],
      [
        "▁başta",
        -9.654175722857286
      ],
      [
        "▁sınırları",
        -9.65464348163035
      ],
      [
        "▁ince",
        -9.654763089096909
      ],
      [
        "▁tercih",
        -9.658502583278898
      ],
      [
        "▁hala",
        -9.658879010306398
      ],
      [
        "▁kullanarak",
        -9.660811096321906
      ],
      [
        "▁kar",
        -9.660918856616641
      ],
      [
        "▁internet",
        -9.661256366328649
      ],
      [
        "▁keşfedilmiş",
        -9.661334435675052
      ],
      [
        "▁david",
        -9.662044310513565
      ],
      [
        "▁lisesi",
        -9.662455761710202
      ],
      [
        "ay",
        -9.664704108368898
      ],
      [
        "▁yapmaktadır",
        -9.66484648138426
      ],
      [
        "▁tahmin",
        -9.665239334011797
      ],
      [
        "▁gürcistan",
        -9.665487714916262
      ],
      [
        "▁polis",
        -9.665602635591961
      ],
      [
        "▁doğum",
        -9.666688061730623
      ],
      [
        "▁mi",
        -9.667366517790608
      ],
      [
        "▁etmiş",
        -9.667742998854564
      ],
      [
        "▁edebiyat",
        -9.668698229622075
      ],
      [
        "ner",
        -9.669059489843258
      ],
      [
        "▁gazete",
        -9.669491947980738
      ],
      [
        "nün",
        -9.671865160955903
      ],
      [
        "▁erkekler",
        -9.672483872000107
      ],
      [
        "‘",
        -9.672522401252204
      ],
      [
        "▁haber",
        -9.672564209795102
      ],
      [
        "▁kökenli",
        -9.672568723188883
      ],
      [
        "▁öğretim",
        -9.673944507164052
      ],
      [
        "▁kupa",
        -9.6747488434492
      ],
      [
        "▁öğrenci",
        -9.676637672322313
      ],
      [
        "▁dergi",
        -9.67667367917836
      ],
      [
        "▁görülür",
        -9.677092488851178
      ],
      [
        "▁okul",
        -9.677278097388475
      ],
      [
        "▁seçimleri",
        -9.67758207439532
      ],
      [
        "▁kişisel",
        -9.679067369447438
      ],
      [
        "▁imparator",
        -9.679106074283302
      ],
      [
        "▁james",
        -9.684948483133839
      ],
      [
        "▁ölçüde",
        -9.68503243098836
      ],
      [
        "▁tıp",
        -9.685257174346724
      ],
      [
        "▁komünist",
        -9.685359111231001
      ],
      [
        "▁gerekli",
        -9.685852057034394
      ],
      [
        "▁ilişki",
        -9.685927344672708
      ],
      [
        "▁dolayısıyla",
        -9.686161451834566
      ],
      [
        "▁belediyesi",
        -9.686356053252862
      ],
      [
        "▁sosyalist",
        -9.686709603911103
      ],
      [
        "▁süren",
        -9.687166958455753
      ],
      [
        "▁geçirdi",
        -9.688672393015551
      ],
      [
        "▁ad",
        -9.688994319464156
      ],
      [
        "▁filmde",
        -9.689092979077484
      ],
      [
        "▁adamı",
        -9.689666058687143
      ],
      [
        "▁motor",
        -9.68979508081254
      ],
      [
        "▁yerini",
        -9.690663549229848
      ],
      [
        "▁seçilmiş",
        -9.69099607024819
      ],
      [
        "▁gaz",
        -9.691284777374806
      ],
      [
        "kullanılmaktadır",
        -9.691743416908192
      ],
      [
        "▁aktif",
        -9.692154646788662
      ],
      [
        "▁gelmektedir",
        -9.692515684247653
      ],
      [
        "▁kemal",
        -9.692711164089276
      ],
      [
        "▁cumhurbaşkanı",
        -9.693007582123938
      ],
      [
        "▁alındı",
        -9.693990277502786
      ],
      [
        "▁aslında",
        -9.69433780501764
      ],
      [
        "▁bundan",
        -9.694862528345162
      ],
      [
        "▁sınıf",
        -9.69542373131854
      ],
      [
        "▁nu",
        -9.695625138323335
      ],
      [
        "▁sanayi",
        -9.69621128715231
      ],
      [
        "▁çizgi",
        -9.69650964626751
      ],
      [
        "▁etmeye",
        -9.696637444688323
      ],
      [
        "ist",
        -9.697223882466972
      ],
      [
        "▁programı",
        -9.697913866664067
      ],
      [
        "▁üyeleri",
        -9.698846063122526
      ],
      [
        "▁gösterir",
        -9.699396216595005
      ],
      [
        "▁ticari",
        -9.699530194363874
      ],
      [
        "▁bar",
        -9.701038726318348
      ],
      [
        "▁olmadığı",
        -9.701080912434799
      ],
      [
        "▁çaplı",
        -9.702041783849907
      ],
      [
        "▁evli",
        -9.703142548951128
      ],
      [
        "▁eser",
        -9.703803632496472
      ],
      [
        "▁kamu",
        -9.704200129733104
      ],
      [
        "verilmiştir",
        -9.704783508791085
      ],
      [
        "▁dini",
        -9.704799812726357
      ],
      [
        "▁kale",
        -9.705361466744787
      ],
      [
        "▁etkili",
        -9.705448818018146
      ],
      [
        "▁açısından",
        -9.706559729604646
      ],
      [
        "do",
        -9.706652567434785
      ],
      [
        "▁şampiyon",
        -9.709434476874879
      ],
      [
        "▁olay",
        -9.709928829257759
      ],
      [
        "▁terk",
        -9.712811286732189
      ],
      [
        "yen",
        -9.713050311424626
      ],
      [
        "▁öncesi",
        -9.713485457147376
      ],
      [
        "▁michael",
        -9.713736269273408
      ],
      [
        "▁belli",
        -9.714737302564473
      ],
      [
        "▁kilisesi",
        -9.717992308843058
      ],
      [
        "▁uygulama",
        -9.719913178357798
      ],
      [
        "▁çek",
        -9.72018683181592
      ],
      [
        "▁yılındaki",
        -9.721531977152573
      ],
      [
        "▁paul",
        -9.723046553248158
      ],
      [
        "▁gördü",
        -9.723482541153603
      ],
      [
        "▁kullanılmıştır",
        -9.724339309055727
      ],
      [
        "▁şehrinde",
        -9.72437792619413
      ],
      [
        "▁inç",
        -9.725098996590965
      ],
      [
        "▁oy",
        -9.725492515210206
      ],
      [
        "▁takımın",
        -9.726089880740934
      ],
      [
        "▁yaşadığı",
        -9.7273642525082
      ],
      [
        "▁tane",
        -9.727371145977967
      ],
      [
        "▁şöyle",
        -9.72764356948794
      ],
      [
        "▁sekiz",
        -9.730721506274161
      ],
      [
        "▁ateş",
        -9.73138085895595
      ],
      [
        "▁hayatını",
        -9.732120200906616
      ],
      [
        "▁görevini",
        -9.73252048046016
      ],
      [
        "▁bulunmuştur",
        -9.732623631461372
      ],
      [
        "▁kutsal",
        -9.733516223586577
      ],
      [
        "▁lisans",
        -9.733655322066223
      ],
      [
        "layarak",
        -9.734501930789154
      ],
      [
        "▁bursa",
        -9.735316424507781
      ],
      [
        "abilir",
        -9.735528081154314
      ],
      [
        "▁fark",
        -9.736202260942719
      ],
      [
        "▁nokta",
        -9.737025851186042
      ],
      [
        "▁beşiktaş",
        -9.738898321701493
      ],
      [
        "ında",
        -9.73956368031278
      ],
      [
        "▁kaynağı",
        -9.741738634678585
      ],
      [
        "▁takımında",
        -9.741984532194978
      ],
      [
        "▁akdeniz",
        -9.743041742681232
      ],
      [
        "▁geç",
        -9.7453416885339
      ],
      [
        "▁yüzden",
        -9.745438564588849
      ],
      [
        "▁oynadığı",
        -9.745891836196794
      ],
      [
        "▁moskova",
        -9.747205023277093
      ],
      [
        "sh",
        -9.747209822923542
      ],
      [
        "▁et",
        -9.747449250156341
      ],
      [
        "▁astronom",
        -9.747519053157346
      ],
      [
        "▁sefer",
        -9.747706223251772
      ],
      [
        "mo",
        -9.747808038082983
      ],
      [
        "▁iletişim",
        -9.74816037361879
      ],
      [
        "▁kuzeyinde",
        -9.749620442577513
      ],
      [
        "▁üretilen",
        -9.750086840470207
      ],
      [
        "▁araç",
        -9.751102255920964
      ],
      [
        "ers",
        -9.751250079196979
      ],
      [
        "ker",
        -9.752490287036567
      ],
      [
        "▁sağlar",
        -9.752553452908069
      ],
      [
        "▁amacı",
        -9.752590886952355
      ],
      [
        "▁silah",
        -9.753067291647234
      ],
      [
        "▁insanların",
        -9.753187550275436
      ],
      [
        "▁hakkı",
        -9.754306207855208
      ],
      [
        "▁for",
        -9.754357469130477
      ],
      [
        "neredeyse",
        -9.754519902772682
      ],
      [
        "▁orada",
        -9.755220326877797
      ],
      [
        "▁george",
        -9.75522827636936
      ],
      [
        "▁katı",
        -9.756177507541569
      ],
      [
        "▁kesin",
        -9.757437456487848
      ],
      [
        "▁dışı",
        -9.758088655900613
      ],
      [
        "▁insanlar",
        -9.758341884701156
      ],
      [
        "▁fıf",
        -9.760742327865383
      ],
      [
        "vermiştir",
        -9.761353288193417
      ],
      [
        "▁gücü",
        -9.761525047277742
      ],
      [
        "▁tamamladı",
        -9.761755270491854
      ],
      [
        "▁ada",
        -9.761865807384012
      ],
      [
        "▁edilmesi",
        -9.763469189314883
      ],
      [
        "▁müzesi",
        -9.763622068448159
      ],
      [
        "▁teki",
        -9.764847992747839
      ],
      [
        "▁fa",
        -9.765904155832748
      ],
      [
        "▁tedavi",
        -9.765995402692667
      ],
      [
        "▁ceza",
        -9.766525223501437
      ],
      [
        "▁şampiyonu",
        -9.766764256311776
      ],
      [
        "▁yönetmen",
        -9.767286128650444
      ],
      [
        "▁alınan",
        -9.767540423453452
      ],
      [
        "▁çıkış",
        -9.767984803342236
      ],
      [
        "▁giren",
        -9.768392641734717
      ],
      [
        "▁şiir",
        -9.769794213229929
      ],
      [
        "▁söyler",
        -9.774442475402832
      ],
      [
        "mevcuttur",
        -9.774566697050727
      ],
      [
        "▁sağlayan",
        -9.775497636247225
      ],
      [
        "▁yıllar",
        -9.776152588495721
      ],
      [
        "lük",
        -9.777721934003184
      ],
      [
        "▁yapısı",
        -9.778815625032147
      ],
      [
        "▁anne",
        -9.778826565271276
      ],
      [
        "liğini",
        -9.778836196013984
      ],
      [
        "▁işçi",
        -9.77932574962969
      ],
      [
        "▁eş",
        -9.779371017817638
      ],
      [
        "▁denir",
        -9.780558463358522
      ],
      [
        "▁günlük",
        -9.781001596468359
      ],
      [
        "▁akademisi",
        -9.78101467977214
      ],
      [
        "▁kültürel",
        -9.78118419074075
      ],
      [
        "▁bal",
        -9.78137599167827
      ],
      [
        "dığı",
        -9.781561450985414
      ],
      [
        "▁bazıları",
        -9.781736837162025
      ],
      [
        "▁eseri",
        -9.782117899203994
      ],
      [
        "▁hükûmeti",
        -9.782213888242342
      ],
      [
        "▁oyunları",
        -9.782566944947272
      ],
      [
        "▁yapılır",
        -9.782764166929097
      ],
      [
        "ün",
        -9.78345038740756
      ],
      [
        "▁sabit",
        -9.784875410601646
      ],
      [
        "▁asıl",
        -9.785362131747593
      ],
      [
        "▁çalışmalar",
        -9.786171973375605
      ],
      [
        "▁içindeki",
        -9.786480386943294
      ],
      [
        "▁kullanımı",
        -9.788182397180282
      ],
      [
        "▁imza",
        -9.789458953171335
      ],
      [
        "▁bilgiler",
        -9.790303256916216
      ],
      [
        "▁doktor",
        -9.790852109110507
      ],
      [
        "▁lise",
        -9.792880544269698
      ],
      [
        "▁tb",
        -9.793422090296604
      ],
      [
        "▁uzak",
        -9.793691994704382
      ],
      [
        "▁fiziksel",
        -9.794047986365502
      ],
      [
        "é",
        -9.794943205686117
      ],
      [
        "▁ab",
        -9.795748469345444
      ],
      [
        "▁ölmüştü",
        -9.795839024860518
      ],
      [
        "▁derneği",
        -9.79642806050534
      ],
      [
        "▁my",
        -9.797636766426487
      ],
      [
        "▁başlarında",
        -9.797959862912958
      ],
      [
        "▁robert",
        -9.799322244583802
      ],
      [
        "▁sorumlu",
        -9.79952897318976
      ],
      [
        "▁katalog",
        -9.802055936566932
      ],
      [
        "▁st",
        -9.803945482124005
      ],
      [
        "▁yayınladı",
        -9.805323903002789
      ],
      [
        "▁hayvan",
        -9.807835097305466
      ],
      [
        "▁isviçre",
        -9.807949778302685
      ],
      [
        "ham",
        -9.80981328365761
      ],
      [
        "▁baba",
        -9.810428025467015
      ],
      [
        "lin",
        -9.810501073940717
      ],
      [
        "▁dakika",
        -9.810896598724234
      ],
      [
        "▁silahlı",
        -9.811206783134448
      ],
      [
        "▁pazar",
        -9.812863524316692
      ],
      [
        "▁bi",
        -9.813000804519772
      ],
      [
        "▁sebep",
        -9.814287391920807
      ],
      [
        "▁yavaş",
        -9.81544042782141
      ],
      [
        "▁britanya",
        -9.81597665640171
      ],
      [
        "▁sivil",
        -9.816017323722713
      ],
      [
        "▁mavi",
        -9.816082638250368
      ],
      [
        "▁gizli",
        -9.816316841987444
      ],
      [
        "▁kulübünde",
        -9.816966616917222
      ],
      [
        "▁teknoloji",
        -9.817152750047311
      ],
      [
        "nü",
        -9.817350732448293
      ],
      [
        "▁onları",
        -9.818919967695422
      ],
      [
        "▁şarkının",
        -9.821438905786756
      ],
      [
        "▁yardımcısı",
        -9.82487405953525
      ],
      [
        "nüz",
        -9.825207238516974
      ],
      [
        "▁kendine",
        -9.825377326852568
      ],
      [
        "▁arapça",
        -9.826116575222674
      ],
      [
        "▁kararı",
        -9.826464205155828
      ],
      [
        "▁olimpiyatları",
        -9.826769053982858
      ],
      [
        "▁araya",
        -9.826858956389197
      ],
      [
        "▁av",
        -9.82746480797655
      ],
      [
        "▁aşağı",
        -9.82783593472038
      ],
      [
        "▁hakları",
        -9.828048358872792
      ],
      [
        "▁kaya",
        -9.828490357311923
      ],
      [
        "▁yükseldi",
        -9.828613538923667
      ],
      [
        "▁takımının",
        -9.830463395257091
      ],
      [
        "▁gümüş",
        -9.831471859782049
      ],
      [
        "▁genelde",
        -9.832616883808834
      ],
      [
        "▁hristiyan",
        -9.835281399959305
      ],
      [
        "▁portekiz",
        -9.836145957082952
      ],
      [
        "▁geçiş",
        -9.83619389077046
      ],
      [
        "▁çapında",
        -9.836401478206406
      ],
      [
        "▁yayımlanan",
        -9.837318716264786
      ],
      [
        "▁hareketi",
        -9.838279084614102
      ],
      [
        "▁tarihte",
        -9.838464590658715
      ],
      [
        "▁muharebesi",
        -9.838931341883749
      ],
      [
        "bo",
        -9.83948909749631
      ],
      [
        "▁almış",
        -9.83981775683496
      ],
      [
        "▁gökyüzünde",
        -9.841526906920192
      ],
      [
        "▁hasan",
        -9.843552067701461
      ],
      [
        "▁emekli",
        -9.843840426914824
      ],
      [
        "▁yerde",
        -9.844216127727792
      ],
      [
        "▁devre",
        -9.845189808383427
      ],
      [
        "▁konseyi",
        -9.845666204781724
      ],
      [
        "▁sonradan",
        -9.845956080991975
      ],
      [
        "▁bilinmektedir",
        -9.846311859706214
      ],
      [
        "kar",
        -9.847128182590147
      ],
      [
        "▁sert",
        -9.847197589462995
      ],
      [
        "▁atandı",
        -9.848260125684638
      ],
      [
        "göstermektedir",
        -9.848755843484913
      ],
      [
        "▁civarında",
        -9.849928802917265
      ],
      [
        "▁gölü",
        -9.850029172496182
      ],
      [
        "▁ağ",
        -9.851067077691647
      ],
      [
        "▁alma",
        -9.85127128730807
      ],
      [
        "ölümünden",
        -9.852088810938803
      ],
      [
        "▁müdürlüğü",
        -9.854565504409159
      ],
      [
        "▁standart",
        -9.858182723165758
      ],
      [
        "▁listesinde",
        -9.858519224512875
      ],
      [
        "▁havalimanı",
        -9.860496174560511
      ],
      [
        "▁toplum",
        -9.860683641933571
      ],
      [
        "▁ukrayna",
        -9.861069445491745
      ],
      [
        "▁resim",
        -9.861439980844876
      ],
      [
        "▁esas",
        -9.862494486357926
      ],
      [
        "vo",
        -9.863855468883816
      ],
      [
        "unun",
        -9.864698323594077
      ],
      [
        "diği",
        -9.86590930982604
      ],
      [
        "▁los",
        -9.866600118278619
      ],
      [
        "▁dolar",
        -9.86704320578321
      ],
      [
        "▁kim",
        -9.867259561935057
      ],
      [
        "▁şimdi",
        -9.868620618710466
      ],
      [
        "▁sebebiyle",
        -9.869061429490236
      ],
      [
        "▁bitirdi",
        -9.869105440374256
      ],
      [
        "▁kalma",
        -9.869121470861673
      ],
      [
        "▁yapma",
        -9.869562878162773
      ],
      [
        "▁geçmiş",
        -9.869850416953534
      ],
      [
        "▁değişik",
        -9.870106402997076
      ],
      [
        "▁aydın",
        -9.871645958437245
      ],
      [
        "▁böyle",
        -9.871809743282553
      ],
      [
        "▁ba",
        -9.872013128433528
      ],
      [
        "maya",
        -9.873701136442872
      ],
      [
        "▁brezilya",
        -9.873866535798951
      ],
      [
        "▁kişiler",
        -9.87483023110907
      ],
      [
        "▁müze",
        -9.87538224579565
      ],
      [
        "▁lideri",
        -9.876387779093072
      ],
      [
        "▁oluşturur",
        -9.876541227390097
      ],
      [
        "net",
        -9.876825168587533
      ],
      [
        "▁babasının",
        -9.87735731438664
      ],
      [
        "berg",
        -9.878447540448157
      ],
      [
        "▁liste",
        -9.880389876384093
      ],
      [
        "▁eyaleti",
        -9.88044605479853
      ],
      [
        "▁bas",
        -9.880477189188097
      ],
      [
        "▁askerî",
        -9.88096377091657
      ],
      [
        "▁efendi",
        -9.881177783862636
      ],
      [
        "▁oranı",
        -9.881311438458681
      ],
      [
        "▁ülkeler",
        -9.882384009544923
      ],
      [
        "▁sayılı",
        -9.883479894502608
      ],
      [
        "▁güneyinde",
        -9.884238618592407
      ],
      [
        "▁şah",
        -9.884276333865776
      ],
      [
        "▁giydi",
        -9.884743048469543
      ],
      [
        "▁alanda",
        -9.884871931172286
      ],
      [
        "yken",
        -9.885650977295162
      ],
      [
        "▁çağ",
        -9.88601721223932
      ],
      [
        "▁biçimde",
        -9.886415141294226
      ],
      [
        "▁doğa",
        -9.886640472159476
      ],
      [
        "▁teleskopla",
        -9.886791148885674
      ],
      [
        "▁dalga",
        -9.887393237219355
      ],
      [
        "▁fransızca",
        -9.88840725690071
      ],
      [
        "acak",
        -9.889409596408825
      ],
      [
        "▁macaristan",
        -9.889787639490521
      ],
      [
        "▁basit",
        -9.891313607712002
      ],
      [
        "▁performans",
        -9.891414178284686
      ],
      [
        "▁gider",
        -9.892329914198436
      ],
      [
        "▁almak",
        -9.892662514006256
      ],
      [
        "▁boy",
        -9.892954929253476
      ],
      [
        "yor",
        -9.893778258404868
      ],
      [
        "▁dağ",
        -9.893872108468202
      ],
      [
        "▁milli",
        -9.893962842753803
      ],
      [
        "▁hafif",
        -9.894016105946267
      ],
      [
        "leme",
        -9.894660199769277
      ],
      [
        "▁sağlamak",
        -9.894722314681191
      ],
      [
        "▁mu",
        -9.896218341278976
      ],
      [
        "▁suç",
        -9.896411948779175
      ],
      [
        "je",
        -9.89650717292747
      ],
      [
        "▁baskı",
        -9.896598855047039
      ],
      [
        "▁osman",
        -9.897071879384104
      ],
      [
        "çı",
        -9.897713576448147
      ],
      [
        "▁city",
        -9.898780761669794
      ],
      [
        "▁kal",
        -9.899150918675891
      ],
      [
        "▁oluştuğu",
        -9.900288134158691
      ],
      [
        "▁teslim",
        -9.900350969024876
      ],
      [
        "▁bina",
        -9.900400096801219
      ],
      [
        "▁eserleri",
        -9.901091588120659
      ],
      [
        "lenmiştir",
        -9.901153821219953
      ],
      [
        "▁hedef",
        -9.902260477322436
      ],
      [
        "▁ku",
        -9.903795980855156
      ],
      [
        "▁gül",
        -9.904397175676484
      ],
      [
        "▁gök",
        -9.90513727434061
      ],
      [
        "▁evlendi",
        -9.905631801169037
      ],
      [
        "▁tahta",
        -9.905971861902792
      ],
      [
        "▁olacak",
        -9.906361623126731
      ],
      [
        "▁yapmaya",
        -9.906447679636276
      ],
      [
        "▁pro",
        -9.906496783083481
      ],
      [
        "▁derin",
        -9.907125370316946
      ],
      [
        "▁yayımlandı",
        -9.907455238011872
      ],
      [
        "▁kanal",
        -9.908695602111154
      ],
      [
        "▁iklim",
        -9.90967716247701
      ],
      [
        "▁peter",
        -9.909708018940103
      ],
      [
        "▁özelliği",
        -9.910218106844692
      ],
      [
        "▁ıv",
        -9.911040144017095
      ],
      [
        "▁ikili",
        -9.911229861774604
      ],
      [
        "▁arada",
        -9.911407579252128
      ],
      [
        "▁saray",
        -9.911441109573492
      ],
      [
        "▁aralarında",
        -9.911758048218454
      ],
      [
        "▁oluşmaktadır",
        -9.91189711698727
      ],
      [
        "▁yoluyla",
        -9.911949448964874
      ],
      [
        "▁dışişleri",
        -9.913907274104375
      ],
      [
        "▁anlaşma",
        -9.91443707845067
      ],
      [
        "▁işaret",
        -9.914635044383243
      ],
      [
        "bey",
        -9.914689214444328
      ],
      [
        "▁play",
        -9.914898590022178
      ],
      [
        "▁açtı",
        -9.91541148191181
      ],
      [
        "ot",
        -9.915744788823929
      ],
      [
        "▁filminde",
        -9.916020315169334
      ],
      [
        "kları",
        -9.916849523123725
      ],
      [
        "kalmıştır",
        -9.91891546038859
      ],
      [
        "▁kimyasal",
        -9.91974189451447
      ],
      [
        "▁faaliyet",
        -9.920056229690529
      ],
      [
        "▁karşılık",
        -9.92027296727341
      ],
      [
        "▁modeli",
        -9.920642588012436
      ],
      [
        "▁kaybetti",
        -9.920904542102605
      ],
      [
        "▁aşırı",
        -9.921292573012309
      ],
      [
        "▁toplamda",
        -9.92134901502554
      ],
      [
        "▁yapım",
        -9.921441616265803
      ],
      [
        "▁adası",
        -9.921536921393832
      ],
      [
        "▁bo",
        -9.921631123113741
      ],
      [
        "▁renk",
        -9.923760374645767
      ],
      [
        "mesi",
        -9.924058416069267
      ],
      [
        "sin",
        -9.924116905921643
      ],
      [
        "bu",
        -9.924241876914893
      ],
      [
        "▁çalışmaya",
        -9.924343658867011
      ],
      [
        "▁idare",
        -9.925372239010953
      ],
      [
        "▁sağladı",
        -9.925876109312844
      ],
      [
        "▁noktası",
        -9.926111425965837
      ],
      [
        "▁tasarım",
        -9.926744120703786
      ],
      [
        "▁opera",
        -9.927561750305637
      ],
      [
        "▁halkın",
        -9.927621608178313
      ],
      [
        "▁hücre",
        -9.928404307224206
      ],
      [
        "▁dağı",
        -9.928871047273203
      ],
      [
        "ff",
        -9.929227837140532
      ],
      [
        "▁federasyonu",
        -9.930030169078142
      ],
      [
        "larak",
        -9.930102876892285
      ],
      [
        "ney",
        -9.930499048103394
      ],
      [
        "▁oluşturan",
        -9.93168052981337
      ],
      [
        "▁olmadığını",
        -9.931743512186706
      ],
      [
        "▁ispanyol",
        -9.932395818117941
      ],
      [
        "sında",
        -9.934079450345385
      ],
      [
        "▁irlanda",
        -9.935882319604016
      ],
      [
        "▁geçmektedir",
        -9.935996182882931
      ],
      [
        "▁ha",
        -9.935997548303645
      ],
      [
        "▁atatürk",
        -9.936113331282941
      ],
      [
        "▁pozisyonunda",
        -9.936606983286007
      ],
      [
        "▁cam",
        -9.936723356218433
      ],
      [
        "▁microsoft",
        -9.937150385169048
      ],
      [
        "▁hayat",
        -9.937585975805046
      ],
      [
        "▁kullanıcı",
        -9.938033986912096
      ],
      [
        "▁karadeniz",
        -9.939848602806345
      ],
      [
        "sıyla",
        -9.940375428145634
      ],
      [
        "▁serisi",
        -9.941200322917535
      ],
      [
        "▁kış",
        -9.941306334353579
      ],
      [
        "▁getirildi",
        -9.942600634966112
      ],
      [
        "▁ibrahim",
        -9.943399895954794
      ],
      [
        "▁ertesi",
        -9.944133154991679
      ],
      [
        "▁üretimi",
        -9.944488257016898
      ],
      [
        "▁taki",
        -9.944779647848302
      ],
      [
        "▁halkı",
        -9.945463127518332
      ],
      [
        "▁medya",
        -9.94654736474914
      ],
      [
        "▁mac",
        -9.946876375103963
      ],
      [
        "▁aşk",
        -9.947122352679944
      ],
      [
        "▁yarış",
        -9.947296711357673
      ],
      [
        "▁ulaştı",
        -9.948495506907491
      ],
      [
        "▁yapar",
        -9.948875492043461
      ],
      [
        "▁ilişkiler",
        -9.949119973572095
      ],
      [
        "hi",
        -9.952396083714861
      ],
      [
        "▁test",
        -9.95247737377254
      ],
      [
        "▁dağılımı",
        -9.952933134536664
      ],
      [
        "▁yüzölçümü",
        -9.953500004414188
      ],
      [
        "▁nazi",
        -9.953632042039743
      ],
      [
        "▁halka",
        -9.955115574721406
      ],
      [
        "tik",
        -9.955173235098249
      ],
      [
        "▁kayıt",
        -9.955745400094266
      ],
      [
        "▁uçak",
        -9.956167343328769
      ],
      [
        "▁sürdü",
        -9.957184104951313
      ],
      [
        "▁komutanı",
        -9.957415561103282
      ],
      [
        "ron",
        -9.958196949263709
      ],
      [
        "▁kıyı",
        -9.958943690044121
      ],
      [
        "▁bunlardan",
        -9.9599013818191
      ],
      [
        "▁geçer",
        -9.960092977701397
      ],
      [
        "ster",
        -9.960551825360655
      ],
      [
        "▁ila",
        -9.961087441675053
      ],
      [
        "▁yılda",
        -9.962046226422954
      ],
      [
        "▁özerk",
        -9.962283772172885
      ],
      [
        "▁nedeni",
        -9.963204733332052
      ],
      [
        "let",
        -9.963515448715874
      ],
      [
        "lığa",
        -9.965658397431508
      ],
      [
        "▁ciddi",
        -9.965694238819983
      ],
      [
        "▁süleyman",
        -9.967799494409837
      ],
      [
        "q",
        -9.967932859937475
      ],
      [
        "▁petrol",
        -9.969547430677212
      ],
      [
        "▁beşinci",
        -9.969569201669868
      ],
      [
        "▁buz",
        -9.970643793347394
      ],
      [
        "▁kanun",
        -9.971593547652704
      ],
      [
        "▁sahipliği",
        -9.97170969915545
      ],
      [
        "▁trabzon",
        -9.97172283813013
      ],
      [
        "▁yurt",
        -9.971981373394435
      ],
      [
        "▁charles",
        -9.972609252836575
      ],
      [
        "▁başlangıçta",
        -9.972823536454818
      ],
      [
        "▁kentinde",
        -9.97287419442544
      ],
      [
        "▁ilinde",
        -9.973653406252701
      ],
      [
        "▁bölgesine",
        -9.974640520654958
      ],
      [
        "▁alınmış",
        -9.975065291849438
      ],
      [
        "▁gel",
        -9.975230397041575
      ],
      [
        "▁com",
        -9.975528471637583
      ],
      [
        "▁katılan",
        -9.97622085517387
      ],
      [
        "▁camii",
        -9.976939302696767
      ],
      [
        "▁adana",
        -9.977684956896193
      ],
      [
        "▁po",
        -9.977852789761023
      ],
      [
        "▁aracılığıyla",
        -9.978290023604451
      ],
      [
        "▁belçika",
        -9.978651722042315
      ],
      [
        "▁olduğuna",
        -9.979437090021266
      ],
      [
        "▁kelime",
        -9.979651082864946
      ],
      [
        "▁zarar",
        -9.980000948051131
      ],
      [
        "▁adalet",
        -9.981765761316378
      ],
      [
        "▁grand",
        -9.981914882195145
      ],
      [
        "▁ismini",
        -9.982596129248845
      ],
      [
        "▁başbakan",
        -9.983462754751987
      ],
      [
        "▁dans",
        -9.983876854576584
      ],
      [
        "▁bulgaristan",
        -9.984555497900073
      ],
      [
        "▁yüzünden",
        -9.984578227853454
      ],
      [
        "▁program",
        -9.986196845425562
      ],
      [
        "▁bay",
        -9.987336903475345
      ],
      [
        "▁kraliyet",
        -9.987404294692618
      ],
      [
        "▁antlaşması",
        -9.987815703274652
      ],
      [
        "▁gerekir",
        -9.98887442072737
      ],
      [
        "mon",
        -9.98918060737155
      ],
      [
        "▁yüzey",
        -9.990006963788899
      ],
      [
        "▁kuş",
        -9.990028520740893
      ],
      [
        "ının",
        -9.990680956335014
      ],
      [
        "▁soğuk",
        -9.991530201814879
      ],
      [
        "▁hikâye",
        -9.991754622104086
      ],
      [
        "▁maçına",
        -9.991889231608026
      ],
      [
        "▁amatör",
        -9.992518513553753
      ],
      [
        "kin",
        -9.992706114861772
      ],
      [
        "▁belirtti",
        -9.992973128309867
      ],
      [
        "▁black",
        -9.993601928612874
      ],
      [
        "▁şair",
        -9.994204807114388
      ],
      [
        "▁ikisi",
        -9.995294260659007
      ],
      [
        "▁onların",
        -9.996663649796638
      ],
      [
        "▁bölgesel",
        -9.996828934657183
      ],
      [
        "▁yaparak",
        -9.997026782671513
      ],
      [
        "▁içi",
        -9.997261675134245
      ],
      [
        "▁meksika",
        -9.997277206922353
      ],
      [
        "▁etmesi",
        -9.998107662065332
      ],
      [
        "▁başardı",
        -9.998384381023062
      ],
      [
        "▁bölgenin",
        -9.999782809898564
      ],
      [
        "▁sonlarında",
        -10.00059421813906
      ],
      [
        "▁önünde",
        -10.00105471902583
      ],
      [
        "▁cinsel",
        -10.001473317086086
      ],
      [
        "▁demokratik",
        -10.00206475664142
      ],
      [
        "▁anti",
        -10.003164906392449
      ],
      [
        "tar",
        -10.00326009204104
      ],
      [
        "▁görüntü",
        -10.00376247926234
      ],
      [
        "san",
        -10.003821734763939
      ],
      [
        "▁meslek",
        -10.004439429931145
      ],
      [
        "▁gerek",
        -10.004451307597659
      ],
      [
        "▁yazılım",
        -10.005953409773424
      ],
      [
        "izm",
        -10.00612058370775
      ],
      [
        "▁sıcak",
        -10.006303917780187
      ],
      [
        "▁forması",
        -10.0064320491207
      ],
      [
        "▁sergi",
        -10.007001082036247
      ],
      [
        "▁darbe",
        -10.008215846745179
      ],
      [
        "▁olduğundan",
        -10.009903973482608
      ],
      [
        "▁politik",
        -10.011470109258532
      ],
      [
        "ius",
        -10.011635750168615
      ],
      [
        "▁stadyumu",
        -10.012166394543572
      ],
      [
        "▁go",
        -10.01348073901791
      ],
      [
        "▁arjantin",
        -10.013792999704904
      ],
      [
        "ck",
        -10.01424242533147
      ],
      [
        "▁denizi",
        -10.015316008179761
      ],
      [
        "▁jean",
        -10.016026017573473
      ],
      [
        "▁elektronik",
        -10.01690441070313
      ],
      [
        "▁biraz",
        -10.017183933961183
      ],
      [
        "▁world",
        -10.017926417005807
      ],
      [
        "ski",
        -10.018677494596444
      ],
      [
        "▁yandan",
        -10.018787899841625
      ],
      [
        "▁von",
        -10.01893965529845
      ],
      [
        "▁otomobil",
        -10.019012073353217
      ],
      [
        "▁emir",
        -10.019272704886879
      ],
      [
        "▁sivas",
        -10.019751764160057
      ],
      [
        "▁geçici",
        -10.019985840791435
      ],
      [
        "ydu",
        -10.020411762934598
      ],
      [
        "▁getirdi",
        -10.021246483081976
      ],
      [
        "▁konya",
        -10.023083412711525
      ],
      [
        "lardı",
        -10.023243225344725
      ],
      [
        "mann",
        -10.024079743317365
      ],
      [
        "▁hitler",
        -10.024082840017918
      ],
      [
        "▁görülen",
        -10.02414499743516
      ],
      [
        "▁yaşadı",
        -10.024321639620576
      ],
      [
        "▁sanatçısı",
        -10.024379591252378
      ],
      [
        "▁katolik",
        -10.025262438203901
      ],
      [
        "liğine",
        -10.025631758772391
      ],
      [
        "▁üyeliği",
        -10.026008065312947
      ],
      [
        "▁şampiyonluğu",
        -10.027985000321033
      ],
      [
        "▁adlandırılan",
        -10.028476834432919
      ],
      [
        "ebilir",
        -10.028554396487925
      ],
      [
        "▁önceleri",
        -10.029305619362761
      ],
      [
        "▁imparatorluk",
        -10.030060098404677
      ],
      [
        "▁milletler",
        -10.030350946902377
      ],
      [
        "▁yukarı",
        -10.030877664667035
      ],
      [
        "▁savaşın",
        -10.03095043288537
      ],
      [
        "▁başlıca",
        -10.03101137837643
      ],
      [
        "▁şirketin",
        -10.031441888153998
      ],
      [
        "▁angeles",
        -10.033630420033706
      ],
      [
        "▁çalışması",
        -10.03429076946577
      ],
      [
        "▁yere",
        -10.034679392567716
      ],
      [
        "▁q",
        -10.034765861031019
      ],
      [
        "▁direktör",
        -10.03483707297982
      ],
      [
        "tra",
        -10.03485450526324
      ],
      [
        "▁ilişkin",
        -10.035735538015052
      ],
      [
        "▁gösterdi",
        -10.036513648485608
      ],
      [
        "▁albümde",
        -10.036789452731664
      ],
      [
        "▁takımlar",
        -10.036833147916132
      ],
      [
        "▁yunanca",
        -10.036870505327615
      ],
      [
        "▁yayınlanmış",
        -10.037247951537797
      ],
      [
        "▁kurucu",
        -10.038059276574492
      ],
      [
        "▁erzurum",
        -10.038080378304365
      ],
      [
        "van",
        -10.038722062831301
      ],
      [
        "▁giden",
        -10.040029720649501
      ],
      [
        "▁anlamı",
        -10.040883147465333
      ],
      [
        "▁kg",
        -10.041411998506154
      ],
      [
        "▁star",
        -10.041953217516616
      ],
      [
        "▁merkezli",
        -10.04251982700826
      ],
      [
        "▁love",
        -10.042974687016407
      ],
      [
        "▁konser",
        -10.043019291509259
      ],
      [
        "▁kullanım",
        -10.043375759434959
      ],
      [
        "▁sıvı",
        -10.043712516620587
      ],
      [
        "▁kolay",
        -10.044154743812658
      ],
      [
        "▁verilir",
        -10.044425088138583
      ],
      [
        "aksine",
        -10.04447375617006
      ],
      [
        "▁milyar",
        -10.045417296185274
      ],
      [
        "▁you",
        -10.045468844381624
      ],
      [
        "▁kanalı",
        -10.045484078749354
      ],
      [
        "▁dağları",
        -10.046452914897422
      ],
      [
        "▁geliştirme",
        -10.046692289186385
      ],
      [
        "▁gençlik",
        -10.046849272641136
      ],
      [
        "▁hint",
        -10.047423740793977
      ],
      [
        "▁desteği",
        -10.047458833413886
      ],
      [
        "▁düzenli",
        -10.04839873855779
      ],
      [
        "▁kalp",
        -10.049423987736322
      ],
      [
        "▁düşünce",
        -10.049664309186225
      ],
      [
        "▁oldukları",
        -10.049927332711418
      ],
      [
        "▁komitesi",
        -10.049951221429762
      ],
      [
        "▁papa",
        -10.050742371876876
      ],
      [
        "▁pa",
        -10.051126747254065
      ],
      [
        "▁dergisi",
        -10.051306139361904
      ],
      [
        "▁karşın",
        -10.051515545888464
      ],
      [
        "▁felsefe",
        -10.051789241175637
      ],
      [
        "▁gir",
        -10.052508639607403
      ],
      [
        "▁kapsamında",
        -10.052987041529445
      ],
      [
        "gerçekleştirilen",
        -10.053459914961964
      ],
      [
        "▁koyu",
        -10.053654251929869
      ],
      [
        "▁don",
        -10.054130648803865
      ],
      [
        "▁gereken",
        -10.054138702553924
      ],
      [
        "▁akademi",
        -10.055271026387432
      ],
      [
        "▁antalya",
        -10.055799601076945
      ],
      [
        "▁tiyatrosu",
        -10.056042144460895
      ],
      [
        "▁durumunda",
        -10.05610889222645
      ],
      [
        "▁nba",
        -10.057250566728479
      ],
      [
        "▁göl",
        -10.057330914438332
      ],
      [
        "▁der",
        -10.057390145971109
      ],
      [
        "▁sezonun",
        -10.057422687171734
      ],
      [
        "▁fe",
        -10.058292562074374
      ],
      [
        "▁nü",
        -10.05879929809393
      ],
      [
        "ho",
        -10.05900277814296
      ],
      [
        "▁kuruluş",
        -10.060036682476852
      ],
      [
        "▁hızla",
        -10.060365902348718
      ],
      [
        "▁eyalet",
        -10.061117762230595
      ],
      [
        "▁gürcü",
        -10.061361741670964
      ],
      [
        "▁dünyada",
        -10.061471917831918
      ],
      [
        "uz",
        -10.06158823616288
      ],
      [
        "▁yemek",
        -10.061913161375818
      ],
      [
        "▁mm",
        -10.063060405216085
      ],
      [
        "▁seçimlerinde",
        -10.064215459265407
      ],
      [
        "▁düzey",
        -10.064249950804447
      ],
      [
        "▁ke",
        -10.064870248349074
      ],
      [
        "▁adaları",
        -10.065818711893193
      ],
      [
        "ion",
        -10.065963247855263
      ],
      [
        "▁çıkardı",
        -10.06672688955149
      ],
      [
        "▁dönüş",
        -10.06750028632885
      ],
      [
        "▁yaşındayken",
        -10.068557068050835
      ],
      [
        "▁siyaset",
        -10.069882279013267
      ],
      [
        "▁çekildi",
        -10.069918014010138
      ],
      [
        "▁savaşta",
        -10.07019922467179
      ],
      [
        "▁kullanan",
        -10.070314451852497
      ],
      [
        "▁hüseyin",
        -10.070762132910449
      ],
      [
        "ünü",
        -10.071012180427761
      ],
      [
        "fa",
        -10.071145936555748
      ],
      [
        "▁kullanılabilir",
        -10.071169277431487
      ],
      [
        "don",
        -10.071341528067531
      ],
      [
        "▁martin",
        -10.071437268145578
      ],
      [
        "▁am",
        -10.073127529256537
      ],
      [
        "▁dijital",
        -10.073301670220655
      ],
      [
        "miz",
        -10.073849269601999
      ],
      [
        "ez",
        -10.07409955154681
      ],
      [
        "▁geçmiştir",
        -10.074842526727837
      ],
      [
        "▁dizinin",
        -10.0779104555136
      ],
      [
        "▁telefon",
        -10.077977180576147
      ],
      [
        "▁voleybol",
        -10.078709616748856
      ],
      [
        "▁art",
        -10.079330883229794
      ],
      [
        "▁mor",
        -10.079435957077335
      ],
      [
        "▁birlik",
        -10.079713252262552
      ],
      [
        "▁kullanıldı",
        -10.079849583065199
      ],
      [
        "▁samsun",
        -10.080305982197807
      ],
      [
        "▁fizik",
        -10.080323926159384
      ],
      [
        "ren",
        -10.080500208939313
      ],
      [
        "ğini",
        -10.080527740665433
      ],
      [
        "iş",
        -10.080738331839079
      ],
      [
        "▁konuşma",
        -10.081432518251704
      ],
      [
        "▁istifa",
        -10.081870489399748
      ],
      [
        "▁idam",
        -10.081912809116071
      ],
      [
        "▁kurucusu",
        -10.08221532895499
      ],
      [
        "▁kilometre",
        -10.08291924093771
      ],
      [
        "taş",
        -10.083922979205752
      ],
      [
        "▁dokuz",
        -10.084111936567068
      ],
      [
        "▁itibarı",
        -10.084372256602668
      ],
      [
        "▁tanınmış",
        -10.085076974785194
      ],
      [
        "▁ma",
        -10.085210732865727
      ],
      [
        "▁kalesi",
        -10.085592992371932
      ],
      [
        "▁zamanında",
        -10.085706587989968
      ],
      [
        "mp",
        -10.08610130047802
      ],
      [
        "▁katıldığı",
        -10.086186379652972
      ],
      [
        "▁araba",
        -10.086814987189364
      ],
      [
        "▁ka",
        -10.087752522588117
      ],
      [
        "▁bölümde",
        -10.088917862109783
      ],
      [
        "▁etnik",
        -10.088964909970848
      ],
      [
        "▁takımına",
        -10.090042493063471
      ],
      [
        "▁oynayan",
        -10.09036821545155
      ],
      [
        "▁anayasa",
        -10.090561520900176
      ],
      [
        "▁kurumu",
        -10.090594567095087
      ],
      [
        "▁eşit",
        -10.090819907665413
      ],
      [
        "▁geldiği",
        -10.092426260672292
      ],
      [
        "▁toplumsal",
        -10.092696730593193
      ],
      [
        "▁şehirde",
        -10.09343472887954
      ],
      [
        "ev",
        -10.093489916519625
      ],
      [
        "▁kaza",
        -10.093598436917771
      ],
      [
        "sta",
        -10.093892282673808
      ],
      [
        "▁federal",
        -10.094780754862684
      ],
      [
        "▁kapı",
        -10.094962000051991
      ],
      [
        "▁yaşamış",
        -10.095141533885865
      ],
      [
        "▁kuru",
        -10.095426577977367
      ],
      [
        "▁mc",
        -10.095899156465206
      ],
      [
        "▁bölgeye",
        -10.09649752451618
      ],
      [
        "▁yönetmenliğini",
        -10.09749022263328
      ],
      [
        "▁aracı",
        -10.097497979033841
      ],
      [
        "▁del",
        -10.097622863895143
      ],
      [
        "▁klip",
        -10.098770522624957
      ],
      [
        "▁başlamış",
        -10.098810422113576
      ],
      [
        "▁vermektedir",
        -10.099161899791037
      ],
      [
        "▁hazır",
        -10.09982838493512
      ],
      [
        "▁finale",
        -10.100282213398685
      ],
      [
        "▁ettiler",
        -10.101173139352042
      ],
      [
        "▁ermenistan",
        -10.101433200696777
      ],
      [
        "birbirine",
        -10.10303476567801
      ],
      [
        "▁sarmal",
        -10.103071996680402
      ],
      [
        "que",
        -10.104993351842518
      ],
      [
        "▁taşındı",
        -10.105470599188564
      ],
      [
        "▁kazan",
        -10.105638191270915
      ],
      [
        "▁bugünkü",
        -10.106325766958022
      ],
      [
        "▁turizm",
        -10.106348474873982
      ],
      [
        "▁off",
        -10.107622409802758
      ],
      [
        "▁pi",
        -10.1094228737459
      ],
      [
        "ng",
        -10.109828017605484
      ],
      [
        "▁komedi",
        -10.109955353403416
      ],
      [
        "▁olaylar",
        -10.110336910264252
      ],
      [
        "▁tarihsel",
        -10.111077225941358
      ],
      [
        "▁özgür",
        -10.111840840138438
      ],
      [
        "sinden",
        -10.112063760180366
      ],
      [
        "▁terim",
        -10.112560540579185
      ],
      [
        "min",
        -10.113268850172087
      ],
      [
        "▁imzaladı",
        -10.11337507012967
      ],
      [
        "▁yanlış",
        -10.113728017128649
      ],
      [
        "gu",
        -10.11431417968829
      ],
      [
        "▁olimpiyat",
        -10.11497969345174
      ],
      [
        "kişidir",
        -10.115444327787262
      ],
      [
        "▁orman",
        -10.115910589548895
      ],
      [
        "▁doğusunda",
        -10.116442458627375
      ],
      [
        "▁kol",
        -10.116503743145945
      ],
      [
        "kçe",
        -10.116654939711523
      ],
      [
        "▁komşu",
        -10.116715298274407
      ],
      [
        "başı",
        -10.117823060501706
      ],
      [
        "▁oyuncular",
        -10.119098895984864
      ],
      [
        "▁vakfı",
        -10.119154079557392
      ],
      [
        "▁düşman",
        -10.119521182999856
      ],
      [
        "ortadan",
        -10.12158715619924
      ],
      [
        "eline",
        -10.121645612154168
      ],
      [
        "▁nün",
        -10.122663252374375
      ],
      [
        "kleri",
        -10.122812950247521
      ],
      [
        "zo",
        -10.123720927965623
      ],
      [
        "▁topluluğu",
        -10.124465788149559
      ],
      [
        "▁muhtemelen",
        -10.124761089824826
      ],
      [
        "▁ho",
        -10.125398786436527
      ],
      [
        "▁hasta",
        -10.126160990190526
      ],
      [
        "▁önde",
        -10.12646008706326
      ],
      [
        "▁engel",
        -10.12701855285145
      ],
      [
        "per",
        -10.127842826084056
      ],
      [
        "▁ürün",
        -10.128189846551019
      ],
      [
        "ği",
        -10.128291811969602
      ],
      [
        "▁binası",
        -10.12845676017244
      ],
      [
        "▁venedik",
        -10.128805239276613
      ],
      [
        "▁hanedanı",
        -10.128969797635397
      ],
      [
        "▁richard",
        -10.129211485121619
      ],
      [
        "▁edilebilir",
        -10.129293908860118
      ],
      [
        "▁yeterli",
        -10.129615704454741
      ],
      [
        "▁finans",
        -10.129972145242991
      ],
      [
        "▁hat",
        -10.13013036435813
      ],
      [
        "▁dava",
        -10.131001056233353
      ],
      [
        "▁gösteri",
        -10.131037430212773
      ],
      [
        "▁sonuçlar",
        -10.131576644329462
      ],
      [
        "▁batısında",
        -10.132516447428973
      ],
      [
        "ser",
        -10.133025428205366
      ],
      [
        "▁almanca",
        -10.133433238692563
      ],
      [
        "▁sam",
        -10.135323802552564
      ],
      [
        "▁latin",
        -10.135729384089577
      ],
      [
        "▁solo",
        -10.135770166576679
      ],
      [
        "▁gazi",
        -10.135925604059508
      ],
      [
        "ara",
        -10.136248602139156
      ],
      [
        "▁dar",
        -10.136340103750126
      ],
      [
        "▁yaşanan",
        -10.136969524172263
      ],
      [
        "▁metin",
        -10.137340648475842
      ],
      [
        "▁sayımı",
        -10.137670226000383
      ],
      [
        "▁yük",
        -10.137843076159413
      ],
      [
        "▁mimari",
        -10.13809099077038
      ],
      [
        "▁çekti",
        -10.138362548650122
      ],
      [
        "▁rusça",
        -10.138424839323934
      ],
      [
        "▁dile",
        -10.139073697134723
      ],
      [
        "▁dalında",
        -10.139262517473199
      ],
      [
        "▁eleme",
        -10.139431888981472
      ],
      [
        "dü",
        -10.140599817825244
      ],
      [
        "▁amaçlı",
        -10.140795059386933
      ],
      [
        "▁isa",
        -10.14146477160772
      ],
      [
        "inden",
        -10.14154463886359
      ],
      [
        "▁sezonda",
        -10.142246640210228
      ],
      [
        "▁danimarka",
        -10.143546813433861
      ],
      [
        "▁norveç",
        -10.14355350732396
      ],
      [
        "▁tamamı",
        -10.143820012809453
      ],
      [
        "▁buldu",
        -10.144642518457525
      ],
      [
        "▁mahkeme",
        -10.14533683422935
      ],
      [
        "ard",
        -10.14537250838308
      ],
      [
        "▁işlem",
        -10.145613530940645
      ],
      [
        "▁yağ",
        -10.1459732797213
      ],
      [
        "▁sınırlı",
        -10.146079258028914
      ],
      [
        "bel",
        -10.146641367949053
      ],
      [
        "nik",
        -10.14762532977711
      ],
      [
        "▁bağlantı",
        -10.14779304515941
      ],
      [
        "▁komün",
        -10.147943117445987
      ],
      [
        "▁demiryolu",
        -10.14822069290261
      ],
      [
        "▁seyahat",
        -10.148453196980983
      ],
      [
        "▁halde",
        -10.14896591217945
      ],
      [
        "▁ms",
        -10.149723609338317
      ],
      [
        "▁ısı",
        -10.15033332903746
      ],
      [
        "▁vb",
        -10.150848996929357
      ],
      [
        "▁ödülünü",
        -10.151290598771649
      ],
      [
        "▁asit",
        -10.151599769786316
      ],
      [
        "teki",
        -10.152677520850379
      ],
      [
        "▁hattı",
        -10.152757380418517
      ],
      [
        "mek",
        -10.154074440683232
      ],
      [
        "▁projesi",
        -10.154416628421309
      ],
      [
        "chi",
        -10.154435995115021
      ],
      [
        "▁asıllı",
        -10.155641581910892
      ],
      [
        "▁bıraktı",
        -10.156928027995603
      ],
      [
        "gar",
        -10.157006131516477
      ],
      [
        "▁ahmed",
        -10.157720943592366
      ],
      [
        "ford",
        -10.157854730522033
      ],
      [
        "▁mahallesi",
        -10.157983469382103
      ],
      [
        "▁hakim",
        -10.159070360594384
      ],
      [
        "▁zamanlarda",
        -10.159455365165465
      ],
      [
        "▁küresel",
        -10.15946690764095
      ],
      [
        "dar",
        -10.161083693262988
      ],
      [
        "▁kapalı",
        -10.161802437089417
      ],
      [
        "▁not",
        -10.162411386944543
      ],
      [
        "tin",
        -10.162989009953584
      ],
      [
        "iyle",
        -10.16305588319461
      ],
      [
        "▁numara",
        -10.163334972741561
      ],
      [
        "▁finlandiya",
        -10.16548033183988
      ],
      [
        "▁düz",
        -10.166578211303998
      ],
      [
        "▁mehmed",
        -10.166786104799353
      ],
      [
        "▁aynalı",
        -10.167072143839958
      ],
      [
        "▁gerçekleşen",
        -10.167109770428478
      ],
      [
        "▁yöntemi",
        -10.16748185699864
      ],
      [
        "▁kayıtlarında",
        -10.16780635305109
      ],
      [
        "▁ligde",
        -10.16825489733172
      ],
      [
        "▁tarzı",
        -10.16887221273036
      ],
      [
        "▁doğumlu",
        -10.168893735736582
      ],
      [
        "▁özellikler",
        -10.169063542890305
      ],
      [
        "▁davet",
        -10.169094979671403
      ],
      [
        "ut",
        -10.169740249963969
      ],
      [
        "▁özgün",
        -10.170248313438062
      ],
      [
        "▁türleri",
        -10.171367894147334
      ],
      [
        "▁inşaat",
        -10.17158567223431
      ],
      [
        "▁farsça",
        -10.172063914991147
      ],
      [
        "▁arazi",
        -10.172441660959612
      ],
      [
        "so",
        -10.172932549722267
      ],
      [
        "ör",
        -10.173157528796793
      ],
      [
        "▁çalışır",
        -10.173330541509712
      ],
      [
        "▁yirmi",
        -10.174833904042703
      ],
      [
        "▁mimar",
        -10.1750591609874
      ],
      [
        "▁tom",
        -10.175585229444769
      ],
      [
        "▁elinde",
        -10.175585386760673
      ],
      [
        "▁ailesinin",
        -10.175773851720264
      ],
      [
        "▁karmaşık",
        -10.175789659639864
      ],
      [
        "▁gerektiğini",
        -10.176018121396439
      ],
      [
        "▁vergi",
        -10.176120037181667
      ],
      [
        "▁ders",
        -10.17638352378836
      ],
      [
        "yordu",
        -10.176795442209398
      ],
      [
        "kov",
        -10.17740741025127
      ],
      [
        "▁gidere",
        -10.177637784590926
      ],
      [
        "▁çağdaş",
        -10.178297320525838
      ],
      [
        "şi",
        -10.17838255942508
      ],
      [
        "fer",
        -10.179246592374948
      ],
      [
        "▁henry",
        -10.179371888226077
      ],
      [
        "▁yönetmeni",
        -10.179701448885641
      ],
      [
        "▁ölü",
        -10.179755492514808
      ],
      [
        "▁kendisinin",
        -10.179921536846894
      ],
      [
        "eri",
        -10.18024359625593
      ],
      [
        "▁temsilcisi",
        -10.181045172646476
      ],
      [
        "▁kuvvet",
        -10.181103478909632
      ],
      [
        "▁olumlu",
        -10.18126279497554
      ],
      [
        "▁hot",
        -10.181699701052638
      ],
      [
        "▁boz",
        -10.182541627117846
      ],
      [
        "▁mahallenin",
        -10.182593427640114
      ],
      [
        "▁kullanılarak",
        -10.183024453508033
      ],
      [
        "▁all",
        -10.18360391838786
      ],
      [
        "▁teklif",
        -10.184151572307071
      ],
      [
        "▁işleri",
        -10.184325488792954
      ],
      [
        "▁kırım",
        -10.184719644440742
      ],
      [
        "▁görevinde",
        -10.185136972660578
      ],
      [
        "▁valisi",
        -10.185465246958062
      ],
      [
        "▁aziz",
        -10.186796258532798
      ],
      [
        "▁league",
        -10.186960898939647
      ],
      [
        "▁kod",
        -10.187463899526852
      ],
      [
        "yo",
        -10.187703138685837
      ],
      [
        "▁kullanır",
        -10.188520044903482
      ],
      [
        "▁yazılan",
        -10.188737969974285
      ],
      [
        "▁açıklama",
        -10.19014082460018
      ],
      [
        "▁gıda",
        -10.190591188310892
      ],
      [
        "▁suyu",
        -10.191895071527147
      ],
      [
        "▁gazeteci",
        -10.192187670801005
      ],
      [
        "sonuna",
        -10.192557023522191
      ],
      [
        "▁alternatif",
        -10.192881894497164
      ],
      [
        "▁devrimi",
        -10.193603951872134
      ],
      [
        "▁bünyesinde",
        -10.194330089243131
      ],
      [
        "▁birleşmiş",
        -10.194378760074168
      ],
      [
        "▁saint",
        -10.195796646303469
      ],
      [
        "▁nüfusun",
        -10.19642277352306
      ],
      [
        "▁karakteri",
        -10.1967115839465
      ],
      [
        "▁thomas",
        -10.196941708215126
      ],
      [
        "▁oyunun",
        -10.197034288169855
      ],
      [
        "▁yazılı",
        -10.197205222754981
      ],
      [
        "▁zamanlar",
        -10.197943147378542
      ],
      [
        "▁ilişkileri",
        -10.198505258286195
      ],
      [
        "▁karısı",
        -10.19868578635934
      ],
      [
        "▁kullandığı",
        -10.198876623311994
      ],
      [
        "▁billboard",
        -10.199035011669325
      ],
      [
        "▁bit",
        -10.199202118752826
      ],
      [
        "▁ülkelerde",
        -10.199376372256973
      ],
      [
        "▁zayıf",
        -10.200036462938836
      ],
      [
        "met",
        -10.200313315117615
      ],
      [
        "▁zamanla",
        -10.200663946509604
      ],
      [
        "▁united",
        -10.200772175779134
      ],
      [
        "▁politika",
        -10.200947985537734
      ],
      [
        "▁dizisinde",
        -10.20103206160887
      ],
      [
        "▁köprü",
        -10.20185123120658
      ],
      [
        "▁gelişmiş",
        -10.202691757069166
      ],
      [
        "▁saf",
        -10.202817754438835
      ],
      [
        "ecek",
        -10.20326407925083
      ],
      [
        "▁hastalık",
        -10.203361182205402
      ],
      [
        "önceden",
        -10.203387281084144
      ],
      [
        "ft",
        -10.203539169418178
      ],
      [
        "▁pers",
        -10.20395735679026
      ],
      [
        "pınar",
        -10.204274660505362
      ],
      [
        "▁istedi",
        -10.204970758700627
      ],
      [
        "▁gören",
        -10.205197740565012
      ],
      [
        "▁tren",
        -10.205510408709788
      ],
      [
        "▁hayatta",
        -10.20566715821086
      ],
      [
        "▁birlikleri",
        -10.20587481822549
      ],
      [
        "▁ıs",
        -10.205887481630487
      ],
      [
        "▁işbirliği",
        -10.206174193373727
      ],
      [
        "▁frank",
        -10.206214271610822
      ],
      [
        "▁başkanlık",
        -10.206422210422419
      ],
      [
        "görülmektedir",
        -10.206921197613237
      ],
      [
        "▁renkli",
        -10.20699659411312
      ],
      [
        "▁hali",
        -10.207133976063108
      ],
      [
        "▁başkent",
        -10.207136786818236
      ],
      [
        "▁dek",
        -10.20721428175151
      ],
      [
        "türüdür",
        -10.207217102769087
      ],
      [
        "▁önem",
        -10.207240074845252
      ],
      [
        "▁louis",
        -10.207422486315945
      ],
      [
        "▁istasyonu",
        -10.207722883487149
      ],
      [
        "▁hacı",
        -10.207967905593334
      ],
      [
        "▁mahkemesi",
        -10.208128265338292
      ],
      [
        "▁romanya",
        -10.208406897059147
      ],
      [
        "lanmış",
        -10.208934556148758
      ],
      [
        "▁va",
        -10.209367056309395
      ],
      [
        "▁eğitimini",
        -10.20976493992552
      ],
      [
        "▁nükleer",
        -10.209935950206507
      ],
      [
        "▁turnuva",
        -10.209977398272889
      ],
      [
        "▁verme",
        -10.210379365775974
      ],
      [
        "▁kas",
        -10.210420980892732
      ],
      [
        "mar",
        -10.211684948778773
      ],
      [
        "▁atina",
        -10.211784889975377
      ],
      [
        "▁con",
        -10.212257292194908
      ],
      [
        "rat",
        -10.213360190269846
      ],
      [
        "▁kulüplerinde",
        -10.213387820441552
      ],
      [
        "▁diyarbakır",
        -10.213646066347737
      ],
      [
        "▁belde",
        -10.213931869663531
      ],
      [
        "▁rolü",
        -10.214036149169663
      ],
      [
        "▁parkı",
        -10.214734556727933
      ],
      [
        "▁show",
        -10.2153099012734
      ],
      [
        "ant",
        -10.216277533760364
      ],
      [
        "les",
        -10.216332100635046
      ],
      [
        "▁şampiyonlar",
        -10.216489925553876
      ],
      [
        "▁küme",
        -10.216652575061527
      ],
      [
        "▁süresi",
        -10.21684832237025
      ],
      [
        "▁sahipti",
        -10.217761700477348
      ],
      [
        "▁büyükşehir",
        -10.217779256657442
      ],
      [
        "▁ekiplerinden",
        -10.218299370094986
      ],
      [
        "▁versiyonu",
        -10.218671037319229
      ],
      [
        "ğ",
        -10.219462060329601
      ],
      [
        "▁eyaletin",
        -10.21989038337141
      ],
      [
        "▁ortasında",
        -10.220007572980176
      ],
      [
        "field",
        -10.221467189782771
      ],
      [
        "▁par",
        -10.221878901542956
      ],
      [
        "▁sinir",
        -10.221981066663856
      ],
      [
        "taki",
        -10.222410676975516
      ],
      [
        "▁records",
        -10.223239924038896
      ],
      [
        "▁sezonunun",
        -10.223524561956195
      ],
      [
        "ok",
        -10.223806249557477
      ],
      [
        "▁ayı",
        -10.223998067832508
      ],
      [
        "▁kuruluşu",
        -10.224785640861885
      ],
      [
        "▁euro",
        -10.225469760315253
      ],
      [
        "wa",
        -10.225642896150685
      ],
      [
        "▁parlamento",
        -10.226641853876053
      ],
      [
        "cumhurbaşkanlığı",
        -10.22679211395069
      ],
      [
        "▁ülkesi",
        -10.226792545069813
      ],
      [
        "▁fatih",
        -10.226986788409755
      ],
      [
        "▁vermek",
        -10.226990146409223
      ],
      [
        "▁müzisyen",
        -10.227476230959555
      ],
      [
        "▁kongre",
        -10.227558232944823
      ],
      [
        "▁örgütü",
        -10.228138246719709
      ],
      [
        "▁gruplar",
        -10.229227807829833
      ],
      [
        "▁şeker",
        -10.22971650896264
      ],
      [
        "▁köyde",
        -10.22996555532213
      ],
      [
        "▁profesör",
        -10.23055042402203
      ],
      [
        "▁ulaşım",
        -10.230649706008439
      ],
      [
        "▁başarısı",
        -10.231443566248068
      ],
      [
        "▁sarayı",
        -10.23151168086407
      ],
      [
        "▁halen",
        -10.231715416783127
      ],
      [
        "▁ekibi",
        -10.231938964450189
      ],
      [
        "siyle",
        -10.232047309049268
      ],
      [
        "▁posta",
        -10.232545767708858
      ],
      [
        "▁hüküm",
        -10.232608142539076
      ],
      [
        "▁adayı",
        -10.233096373064475
      ],
      [
        "▁değeri",
        -10.233103022917224
      ],
      [
        "▁senaryo",
        -10.233165966389615
      ],
      [
        "▁benzeri",
        -10.233209443528624
      ],
      [
        "▁sonuçları",
        -10.233412660164113
      ],
      [
        "▁almaya",
        -10.233690933068246
      ],
      [
        "▁güreş",
        -10.234004762122238
      ],
      [
        "rek",
        -10.234745703533214
      ],
      [
        "▁maça",
        -10.23537314931778
      ],
      [
        "▁bilimler",
        -10.235841558757919
      ],
      [
        "▁siyasal",
        -10.235972611489007
      ],
      [
        "pp",
        -10.23710067867872
      ],
      [
        "▁takımları",
        -10.238557177432252
      ],
      [
        "▁boyu",
        -10.238607048125017
      ],
      [
        "ünün",
        -10.238664575022272
      ],
      [
        "▁devletler",
        -10.23868790381678
      ],
      [
        "oz",
        -10.239240235940116
      ],
      [
        "▁mark",
        -10.23927370162031
      ],
      [
        "▁adlandırılır",
        -10.239436593806243
      ],
      [
        "▁taşı",
        -10.239976965453046
      ],
      [
        "▁başlandı",
        -10.240559583626878
      ],
      [
        "▁anlamda",
        -10.24084296308229
      ],
      [
        "▁tipik",
        -10.241391671259715
      ],
      [
        "▁talep",
        -10.241609936258719
      ],
      [
        "▁vi",
        -10.241805743633334
      ],
      [
        "▁west",
        -10.242310573195718
      ],
      [
        "▁ressam",
        -10.242719698379817
      ],
      [
        "▁başladığı",
        -10.242894109215273
      ],
      [
        "▁çevresinde",
        -10.244083556044517
      ],
      [
        "▁red",
        -10.244289033120648
      ],
      [
        "▁yaşar",
        -10.244425192558696
      ],
      [
        "rken",
        -10.244750689862892
      ],
      [
        "▁sınıfı",
        -10.24503611065306
      ],
      [
        "▁nüfusunu",
        -10.24586773858071
      ],
      [
        "▁devletin",
        -10.246319729194097
      ],
      [
        "▁mil",
        -10.246413300643141
      ],
      [
        "▁gu",
        -10.247543707525391
      ],
      [
        "▁tehdit",
        -10.247570637403138
      ],
      [
        "▁kardeş",
        -10.24790472149214
      ],
      [
        "▁sürdürdü",
        -10.247990840288018
      ],
      [
        "▁yaşlı",
        -10.248772602298134
      ],
      [
        "▁kıta",
        -10.24886210963077
      ],
      [
        "▁akademik",
        -10.249460217408641
      ],
      [
        "▁murat",
        -10.24977275567263
      ],
      [
        "▁bakımından",
        -10.249978557896782
      ],
      [
        "▁yakınlarında",
        -10.250505136499156
      ],
      [
        "▁yönettiği",
        -10.250711779078504
      ],
      [
        "▁çocukları",
        -10.251223047736623
      ],
      [
        "▁kenti",
        -10.251504126960752
      ],
      [
        "▁eserler",
        -10.252571926971596
      ],
      [
        "üne",
        -10.254179076708878
      ],
      [
        "▁dev",
        -10.256209131287916
      ],
      [
        "▁yazılmış",
        -10.256577004309433
      ],
      [
        "eddin",
        -10.256822838246192
      ],
      [
        "vin",
        -10.257083543767592
      ],
      [
        "▁zafer",
        -10.257808509770548
      ],
      [
        "▁bakış",
        -10.257843328707413
      ],
      [
        "▁vali",
        -10.258354343331824
      ],
      [
        "arı",
        -10.259479009522112
      ],
      [
        "▁kurtuluş",
        -10.259647300516999
      ],
      [
        "▁kudüs",
        -10.260036027864688
      ],
      [
        "var",
        -10.260163264982728
      ],
      [
        "▁uçuş",
        -10.260380822803045
      ],
      [
        "olmadan",
        -10.26150285923393
      ],
      [
        "▁araştırmalar",
        -10.261674660446575
      ],
      [
        "▁ağaç",
        -10.26170500532479
      ],
      [
        "▁malzeme",
        -10.262275492165083
      ],
      [
        "▁çoğunluğu",
        -10.262431178373522
      ],
      [
        "▁duyurdu",
        -10.262528217519387
      ],
      [
        "▁konum",
        -10.263597975571361
      ],
      [
        "▁yüzde",
        -10.263991688205804
      ],
      [
        "▁adım",
        -10.264125246710147
      ],
      [
        "▁romanı",
        -10.264220350931089
      ],
      [
        "▁ister",
        -10.264433997668025
      ],
      [
        "▁başarısız",
        -10.264648007609187
      ],
      [
        "lığına",
        -10.264684687642438
      ],
      [
        "▁altındaki",
        -10.264691209145381
      ],
      [
        "▁geçerli",
        -10.264736909964418
      ],
      [
        "▁bankası",
        -10.26480013065453
      ],
      [
        "▁hal",
        -10.26493782389134
      ],
      [
        "ret",
        -10.26545231882016
      ],
      [
        "▁kır",
        -10.265844080295224
      ],
      [
        "▁taşımakta",
        -10.265938429866546
      ],
      [
        "▁sırbistan",
        -10.266201721343048
      ],
      [
        "oynamıştır",
        -10.266551624013129
      ],
      [
        "▁washington",
        -10.266614290898676
      ],
      [
        "▁sur",
        -10.267137680780268
      ],
      [
        "▁ailenin",
        -10.267200245644121
      ],
      [
        "▁hükümeti",
        -10.267220568146866
      ],
      [
        "▁sistemleri",
        -10.267689581122779
      ],
      [
        "▁coğrafi",
        -10.267980759531804
      ],
      [
        "▁kentin",
        -10.26819632294829
      ],
      [
        "▁mağlup",
        -10.268501836799363
      ],
      [
        "▁oyunculuk",
        -10.268523531659863
      ],
      [
        "▁ıt",
        -10.269422582240288
      ],
      [
        "▁hu",
        -10.269771028415319
      ],
      [
        "▁yasal",
        -10.269792716044053
      ],
      [
        "▁lee",
        -10.270638356647988
      ],
      [
        "▁viyana",
        -10.270758828421199
      ],
      [
        "▁onur",
        -10.271552616120681
      ],
      [
        "▁gelişme",
        -10.271901180769275
      ],
      [
        "▁yola",
        -10.273018274856064
      ],
      [
        "▁edip",
        -10.273679617137375
      ],
      [
        "▁müdürü",
        -10.27396299710551
      ],
      [
        "▁sc",
        -10.274528674547843
      ],
      [
        "▁muharebe",
        -10.274617993456703
      ],
      [
        "ğı",
        -10.274672884165117
      ],
      [
        "lenmiş",
        -10.275545670847409
      ],
      [
        "▁belge",
        -10.276019977541972
      ],
      [
        "bb",
        -10.276022613956446
      ],
      [
        "lanan",
        -10.276673464575
      ],
      [
        "▁kamera",
        -10.276685128845683
      ],
      [
        "▁komutanlığı",
        -10.277308667309901
      ],
      [
        "▁apple",
        -10.27731717420779
      ],
      [
        "▁basın",
        -10.27779752821612
      ],
      [
        "▁acı",
        -10.278051227968628
      ],
      [
        "▁has",
        -10.27814493005424
      ],
      [
        "▁ürünleri",
        -10.278302124702583
      ],
      [
        "▁mali",
        -10.278657517829844
      ],
      [
        "▁örgüt",
        -10.279223948086909
      ],
      [
        "▁düştü",
        -10.279475038650585
      ],
      [
        "▁özgü",
        -10.279667640087135
      ],
      [
        "▁fotoğraf",
        -10.280270235783041
      ],
      [
        "▁ismail",
        -10.281380581552943
      ],
      [
        "▁kuşatma",
        -10.281424060728122
      ],
      [
        "▁ihtiyaç",
        -10.281630497707138
      ],
      [
        "▁pre",
        -10.28234343775271
      ],
      [
        "▁katkı",
        -10.283132121359797
      ],
      [
        "▁yöntem",
        -10.283851171025246
      ],
      [
        "▁geliştirilmiş",
        -10.284058480943939
      ],
      [
        "▁gri",
        -10.284075370620416
      ],
      [
        "▁kılıç",
        -10.284641915462414
      ],
      [
        "▁prens",
        -10.284771767824758
      ],
      [
        "▁tepki",
        -10.28579451774211
      ],
      [
        "▁gösterildi",
        -10.287084316773845
      ],
      [
        "▁deri",
        -10.288518496113934
      ],
      [
        "▁kimse",
        -10.289134422480767
      ],
      [
        "leyerek",
        -10.289160696834132
      ],
      [
        "▁imparatoru",
        -10.289597695124105
      ],
      [
        "▁bel",
        -10.289942756601086
      ],
      [
        "▁onlara",
        -10.289972971741948
      ],
      [
        "▁sun",
        -10.289986853056355
      ],
      [
        "▁etrafında",
        -10.290634484680796
      ],
      [
        "masına",
        -10.29093708928959
      ],
      [
        "▁nehir",
        -10.29221143944837
      ],
      [
        "▁joseph",
        -10.29316408882426
      ],
      [
        "▁işletme",
        -10.293344795504792
      ],
      [
        "▁turu",
        -10.293989041010088
      ],
      [
        "sunu",
        -10.294730797603433
      ],
      [
        "▁miktarda",
        -10.29476651278338
      ],
      [
        "▁mersin",
        -10.294916872518279
      ],
      [
        "▁bağ",
        -10.29556401274424
      ],
      [
        "▁cephesi",
        -10.296526953675588
      ],
      [
        "▁ac",
        -10.296651839860527
      ],
      [
        "▁isyan",
        -10.296722551928916
      ],
      [
        "▁ep",
        -10.296863922492468
      ],
      [
        "▁döner",
        -10.296866682760246
      ],
      [
        "rna",
        -10.297292865396807
      ],
      [
        "▁gelecek",
        -10.297464794005451
      ],
      [
        "▁cephe",
        -10.297765232094916
      ],
      [
        "▁ruh",
        -10.297828786226884
      ],
      [
        "▁alanları",
        -10.297910190750823
      ],
      [
        "▁fi",
        -10.298824343551225
      ],
      [
        "giller",
        -10.299618101979851
      ],
      [
        "▁katılmış",
        -10.300785398605647
      ],
      [
        "lamıştır",
        -10.300817867986414
      ],
      [
        "▁kayseri",
        -10.300890221786092
      ],
      [
        "▁dna",
        -10.301248728294066
      ],
      [
        "▁ayrılır",
        -10.30130844484397
      ],
      [
        "▁balık",
        -10.30240464423367
      ],
      [
        "▁kurt",
        -10.302788032706381
      ],
      [
        "▁kütle",
        -10.30357267510502
      ],
      [
        "lanır",
        -10.30424912962093
      ],
      [
        "▁google",
        -10.304445749164753
      ],
      [
        "▁madrid",
        -10.304664104322763
      ],
      [
        "▁pan",
        -10.304967602688592
      ],
      [
        "▁isteyen",
        -10.305775031185076
      ],
      [
        "▁hangi",
        -10.305865538714457
      ],
      [
        "▁bağlantılar",
        -10.306230271226138
      ],
      [
        "▁bol",
        -10.306257771270753
      ],
      [
        "▁yaşamaktadır",
        -10.309285585195235
      ],
      [
        "▁teşvik",
        -10.309975674340293
      ],
      [
        "▁or",
        -10.310233400043757
      ],
      [
        "▁dayalı",
        -10.310719961571158
      ],
      [
        "ür",
        -10.310887350591287
      ],
      [
        "▁grubunun",
        -10.311231004464723
      ],
      [
        "▁gösterilmiş",
        -10.31245653873978
      ],
      [
        "▁hız",
        -10.313067255192223
      ],
      [
        "▁kürt",
        -10.313601418846384
      ],
      [
        "▁merkezinde",
        -10.313939349825345
      ],
      [
        "▁manyetik",
        -10.314173404249017
      ],
      [
        "▁ordusunun",
        -10.314246446848028
      ],
      [
        "▁bakım",
        -10.31467010932958
      ],
      [
        "hane",
        -10.314872240420776
      ],
      [
        "▁marka",
        -10.315274885900863
      ],
      [
        "▁hastalığı",
        -10.31533849270479
      ],
      [
        "▁korku",
        -10.315608063410641
      ],
      [
        "▁maruz",
        -10.315634091380357
      ],
      [
        "▁atan",
        -10.316202499717866
      ],
      [
        "paşa",
        -10.316638386109839
      ],
      [
        "▁geçirdiği",
        -10.31719698527793
      ],
      [
        "▁kıyısında",
        -10.31769145141974
      ],
      [
        "▁makedonya",
        -10.317748461848922
      ],
      [
        "kaya",
        -10.318075442793878
      ],
      [
        "▁oynamaktadır",
        -10.318211282976652
      ],
      [
        "▁sürede",
        -10.318668354353346
      ],
      [
        "sak",
        -10.319060426641398
      ],
      [
        "▁sürgün",
        -10.319095262860849
      ],
      [
        "idae",
        -10.32002411193001
      ],
      [
        "▁plak",
        -10.32062627256696
      ],
      [
        "$",
        -10.32064124424616
      ],
      [
        "▁tartışma",
        -10.32083991868179
      ],
      [
        "▁mühendisliği",
        -10.32128771762745
      ],
      [
        "▁çanakkale",
        -10.321302593970787
      ],
      [
        "▁kaydetti",
        -10.322158101883982
      ],
      [
        "▁girmiş",
        -10.322325176753314
      ],
      [
        "rak",
        -10.32251420786082
      ],
      [
        "▁makine",
        -10.322614154550115
      ],
      [
        "▁etkin",
        -10.322893082007571
      ],
      [
        "▁vokal",
        -10.323382238728746
      ],
      [
        "▁kısaca",
        -10.323838052515448
      ],
      [
        "▁balıkesir",
        -10.324786205346708
      ],
      [
        "▁kadro",
        -10.32596869873371
      ],
      [
        "ville",
        -10.326559613126477
      ],
      [
        "▁beyin",
        -10.32794954283249
      ],
      [
        "▁süreci",
        -10.328435072472137
      ],
      [
        "▁sonu",
        -10.328670378807347
      ],
      [
        "▁je",
        -10.328872906378965
      ],
      [
        "▁arnavutluk",
        -10.330085371000752
      ],
      [
        "▁evlilik",
        -10.3302161000407
      ],
      [
        "▁ederken",
        -10.332380600332835
      ],
      [
        "▁ala",
        -10.332432314339442
      ],
      [
        "▁yarısında",
        -10.332539320367122
      ],
      [
        "▁esir",
        -10.332545476917863
      ],
      [
        "ian",
        -10.332896859703306
      ],
      [
        "▁gitar",
        -10.333115054557867
      ],
      [
        "gruba",
        -10.333870493585469
      ],
      [
        "▁rapor",
        -10.333886141182008
      ],
      [
        "▁öğretmen",
        -10.334352905299777
      ],
      [
        "▁boya",
        -10.33524503496761
      ],
      [
        "▁açılan",
        -10.336291336284864
      ],
      [
        "dığını",
        -10.336626873097838
      ],
      [
        "▁dolu",
        -10.336682011936556
      ],
      [
        "▁jackson",
        -10.33678133558521
      ],
      [
        "▁dik",
        -10.336997932582307
      ],
      [
        "cık",
        -10.337031769299974
      ],
      [
        "▁yapılması",
        -10.337576699236354
      ],
      [
        "▁başbakanı",
        -10.33805370495999
      ],
      [
        "yum",
        -10.338114013456192
      ],
      [
        "▁ru",
        -10.339041015063545
      ],
      [
        "▁senesinde",
        -10.33942009179153
      ],
      [
        "▁çıkmış",
        -10.339510880690879
      ],
      [
        "▁donanması",
        -10.340150655144363
      ],
      [
        "▁birimi",
        -10.340730274619203
      ],
      [
        "▁sıcaklık",
        -10.340915712090979
      ],
      [
        "▁edildiği",
        -10.341450859699185
      ],
      [
        "▁tanınan",
        -10.34201002560058
      ],
      [
        "▁hayatına",
        -10.343233484943543
      ],
      [
        "▁okudu",
        -10.343710179446694
      ],
      [
        "▁reklam",
        -10.344926323230343
      ],
      [
        "▁demokrat",
        -10.345508167434648
      ],
      [
        "▁alp",
        -10.345740080803028
      ],
      [
        "▁oluşturduğu",
        -10.345864182401705
      ],
      [
        "▁kalır",
        -10.345990397858777
      ],
      [
        "▁herschel",
        -10.346269460216424
      ],
      [
        "eti",
        -10.34640339749807
      ],
      [
        "▁kalın",
        -10.347023362918824
      ],
      [
        "▁teorisi",
        -10.347502629064477
      ],
      [
        "▁teori",
        -10.348757525844198
      ],
      [
        "▁çay",
        -10.349177526803162
      ],
      [
        "▁giyen",
        -10.34941237897006
      ],
      [
        "▁komisyonu",
        -10.349414002761012
      ],
      [
        "▁gönderildi",
        -10.349817406174306
      ],
      [
        "▁latince",
        -10.350263051646941
      ],
      [
        "▁oda",
        -10.35053079252958
      ],
      [
        "▁öncesinde",
        -10.350673730202182
      ],
      [
        "bert",
        -10.350682827451456
      ],
      [
        "▁kimi",
        -10.350896628843136
      ],
      [
        "▁numaralı",
        -10.351419363288255
      ],
      [
        "▁gereği",
        -10.351973977907393
      ],
      [
        "▁nur",
        -10.352648853541748
      ],
      [
        "▁girer",
        -10.352822576222923
      ],
      [
        "▁unvanını",
        -10.354241678208867
      ],
      [
        "ura",
        -10.354922693054673
      ],
      [
        "ali",
        -10.35509016842774
      ],
      [
        "▁ekran",
        -10.355292279264585
      ],
      [
        "▁ayak",
        -10.35541942657717
      ],
      [
        "▁açıldı",
        -10.35543653399766
      ],
      [
        "▁eşlik",
        -10.355705385663214
      ],
      [
        "▁matematik",
        -10.355846836185883
      ],
      [
        "evi",
        -10.356092734428648
      ],
      [
        "one",
        -10.356494970935438
      ],
      [
        "if",
        -10.356768114238902
      ],
      [
        "ola",
        -10.356993783337593
      ],
      [
        "▁ediyor",
        -10.357368452374397
      ],
      [
        "res",
        -10.357494915724047
      ],
      [
        "bar",
        -10.35749683979795
      ],
      [
        "ından",
        -10.357758537288692
      ],
      [
        "wwe",
        -10.35868746167843
      ],
      [
        "yanına",
        -10.359947408752571
      ],
      [
        "şunlardır",
        -10.360386278745008
      ],
      [
        "▁açıdan",
        -10.36042703232915
      ],
      [
        "▁performansı",
        -10.360561749061123
      ],
      [
        "▁gazetesi",
        -10.36099552899279
      ],
      [
        "▁kon",
        -10.361194792726062
      ],
      [
        "▁kare",
        -10.36137759499669
      ],
      [
        "che",
        -10.361660253210003
      ],
      [
        "▁koca",
        -10.361661394921093
      ],
      [
        "▁yarışı",
        -10.361767878268322
      ],
      [
        "▁görüş",
        -10.361956605806702
      ],
      [
        "▁işletim",
        -10.361990134454194
      ],
      [
        "▁cd",
        -10.36202388564625
      ],
      [
        "▁ko",
        -10.362330761281324
      ],
      [
        "asyon",
        -10.362628755669297
      ],
      [
        "ou",
        -10.362937251077945
      ],
      [
        "▁meyve",
        -10.363582950185679
      ],
      [
        "▁esnasında",
        -10.363792628682932
      ],
      [
        "tre",
        -10.363919123109971
      ],
      [
        "▁çıktığı",
        -10.363962935809948
      ],
      [
        "cü",
        -10.364984126791779
      ],
      [
        "▁piyade",
        -10.365366994238924
      ],
      [
        "▁tri",
        -10.365448667535583
      ],
      [
        "▁hızı",
        -10.36573540665777
      ],
      [
        "up",
        -10.366280476369962
      ],
      [
        "▁oluşturulan",
        -10.366613999274378
      ],
      [
        "lığını",
        -10.36693772373302
      ],
      [
        "▁ötürü",
        -10.367869619040622
      ],
      [
        "▁ata",
        -10.368536340725697
      ],
      [
        "▁birim",
        -10.368572374716228
      ],
      [
        "▁derecede",
        -10.36963617224296
      ],
      [
        "▁küre",
        -10.369736295506742
      ],
      [
        "▁gelmiş",
        -10.370218105860049
      ],
      [
        "▁arama",
        -10.370662047335765
      ],
      [
        "▁doktora",
        -10.37082350463699
      ],
      [
        "▁bulgar",
        -10.371166032749093
      ],
      [
        "▁maria",
        -10.371580796720353
      ],
      [
        "▁çeşit",
        -10.37174194150969
      ],
      [
        "ban",
        -10.372464183742597
      ],
      [
        "▁edward",
        -10.372468410024988
      ],
      [
        "önüne",
        -10.372807121700912
      ],
      [
        "▁sayfa",
        -10.372876860080066
      ],
      [
        "▁artan",
        -10.37324343219769
      ],
      [
        "▁jüri",
        -10.37344681250943
      ],
      [
        "▁tarafında",
        -10.375451363947708
      ],
      [
        "▁öykü",
        -10.37623993568411
      ],
      [
        "▁yalnız",
        -10.376374088704587
      ],
      [
        "jo",
        -10.37651764491507
      ],
      [
        "▁kimya",
        -10.37658269515774
      ],
      [
        "eceği",
        -10.376626923669086
      ],
      [
        "▁daire",
        -10.377221640819402
      ],
      [
        "▁yolcu",
        -10.377354131950794
      ],
      [
        "ani",
        -10.377426583180466
      ],
      [
        "▁kazandığı",
        -10.377539907117944
      ],
      [
        "▁tablo",
        -10.377585746297148
      ],
      [
        "▁seçilen",
        -10.378092880559658
      ],
      [
        "▁edirne",
        -10.379151076110542
      ],
      [
        "geçerek",
        -10.380956742660986
      ],
      [
        "▁boş",
        -10.381017414530632
      ],
      [
        "▁kullanma",
        -10.38125590163356
      ],
      [
        "▁çağı",
        -10.381755591977045
      ],
      [
        "▁takımlarından",
        -10.381877435568242
      ],
      [
        "▁uzunluğu",
        -10.382219414649668
      ],
      [
        "▁bağımsızlık",
        -10.382337792056193
      ],
      [
        "▁üstlendi",
        -10.38283766692593
      ],
      [
        "liğin",
        -10.3834527533818
      ],
      [
        "diğini",
        -10.383552444741271
      ],
      [
        "▁tatlı",
        -10.3837378736436
      ],
      [
        "▁besteci",
        -10.384092254655155
      ],
      [
        "▁kısmında",
        -10.384325520210243
      ],
      [
        "▁parlak",
        -10.384424623238607
      ],
      [
        "▁türlü",
        -10.384575773058312
      ],
      [
        "po",
        -10.385305759881893
      ],
      [
        "▁değildi",
        -10.385433774915143
      ],
      [
        "ph",
        -10.385553166434244
      ],
      [
        "▁insanları",
        -10.385770211551943
      ],
      [
        "▁yakıt",
        -10.386160463033857
      ],
      [
        "▁gövde",
        -10.386328099382162
      ],
      [
        "▁kopya",
        -10.387131673568001
      ],
      [
        "▁erdi",
        -10.387554658123937
      ],
      [
        "▁nesil",
        -10.387944223239375
      ],
      [
        "ling",
        -10.388628920953126
      ],
      [
        "▁ömer",
        -10.388792861605848
      ],
      [
        "▁belirgin",
        -10.389587356007775
      ],
      [
        "▁resme",
        -10.389871041548984
      ],
      [
        "din",
        -10.389902417228681
      ],
      [
        "▁olayı",
        -10.39027000570742
      ],
      [
        "▁masa",
        -10.390944977643262
      ],
      [
        "▁sürümü",
        -10.390950215117634
      ],
      [
        "▁şekil",
        -10.391081395501955
      ],
      [
        "est",
        -10.392223666595513
      ],
      [
        "lenir",
        -10.392358921835246
      ],
      [
        "▁olmaya",
        -10.392673619534547
      ],
      [
        "▁yapılmaktadır",
        -10.393018276022087
      ],
      [
        "▁görsel",
        -10.393204875075293
      ],
      [
        "▁değişim",
        -10.393419061552004
      ],
      [
        "burg",
        -10.393794153148857
      ],
      [
        "▁etkileri",
        -10.394113078401942
      ],
      [
        "▁sebebi",
        -10.394144018908928
      ],
      [
        "▁dedi",
        -10.394579207455882
      ],
      [
        "▁çelik",
        -10.394957664158454
      ],
      [
        "▁kum",
        -10.395056444463163
      ],
      [
        "ağa",
        -10.395161331105614
      ],
      [
        "▁şarap",
        -10.39635809394265
      ],
      [
        "▁bosna",
        -10.396664099176274
      ],
      [
        "▁tank",
        -10.396899922135999
      ],
      [
        "ysa",
        -10.39804650198109
      ],
      [
        "▁sözleri",
        -10.398679544229939
      ],
      [
        "▁cevap",
        -10.399454150629314
      ],
      [
        "ios",
        -10.400096395928939
      ],
      [
        "▁numaray",
        -10.40022962062204
      ],
      [
        "▁karşılığında",
        -10.400310486800855
      ],
      [
        "▁analiz",
        -10.400821317491532
      ],
      [
        "▁durumlarda",
        -10.402475108927598
      ],
      [
        "▁köşe",
        -10.402485273321846
      ],
      [
        "▁duvar",
        -10.402622267153648
      ],
      [
        "▁litvanya",
        -10.403067358777719
      ],
      [
        "yse",
        -10.403185800672235
      ],
      [
        "▁bak",
        -10.4036687498134
      ],
      [
        "▁kap",
        -10.404326633114563
      ],
      [
        "suna",
        -10.404993349526581
      ],
      [
        "▁düşünülmektedir",
        -10.405681544324764
      ],
      [
        "▁ağrı",
        -10.405807016610515
      ],
      [
        "bilen",
        -10.40610721046551
      ],
      [
        "▁sporcu",
        -10.406345390190689
      ],
      [
        "▁çalışmalarına",
        -10.40715102098405
      ],
      [
        "▁karl",
        -10.407349780780217
      ],
      [
        "lenerek",
        -10.407450388994253
      ],
      [
        "▁milletvekilliği",
        -10.407682578906778
      ],
      [
        "▁yumurta",
        -10.40782740680022
      ],
      [
        "▁altıncı",
        -10.407911680561005
      ],
      [
        "▁seviye",
        -10.408111530881357
      ],
      [
        "▁tepe",
        -10.408658132016953
      ],
      [
        "▁çekilmiş",
        -10.40897927889045
      ],
      [
        "▁sağlamış",
        -10.40900241465908
      ],
      [
        "▁sıklıkla",
        -10.409470790405008
      ],
      [
        "tal",
        -10.409641406721638
      ],
      [
        "▁kullandı",
        -10.409741639091562
      ],
      [
        "▁attığı",
        -10.410043395356226
      ],
      [
        "ros",
        -10.410884721408676
      ],
      [
        "▁öte",
        -10.410980127855847
      ],
      [
        "landı",
        -10.411174569168125
      ],
      [
        "▁gözlem",
        -10.411752302931927
      ],
      [
        "lardaki",
        -10.411863181175248
      ],
      [
        "mu",
        -10.412056216088212
      ],
      [
        "▁açılmış",
        -10.412131020731373
      ],
      [
        "▁tarihinin",
        -10.41213454713046
      ],
      [
        "▁aktör",
        -10.412516154285756
      ],
      [
        "▁devrim",
        -10.412606497256402
      ],
      [
        "▁pil",
        -10.41277480607045
      ],
      [
        "▁kart",
        -10.413226819390738
      ],
      [
        "▁yılların",
        -10.413457550928326
      ],
      [
        "▁turda",
        -10.41347599153922
      ],
      [
        "▁car",
        -10.413743517957155
      ],
      [
        "▁mü",
        -10.413838600127141
      ],
      [
        "▁hazırlık",
        -10.414372095044447
      ],
      [
        "aittir",
        -10.41466607903521
      ],
      [
        "▁sırp",
        -10.415033723095585
      ],
      [
        "▁üste",
        -10.41536376438481
      ],
      [
        "▁ege",
        -10.41579520570011
      ],
      [
        "▁insanın",
        -10.415976370244714
      ],
      [
        "▁unvanı",
        -10.416221190220211
      ],
      [
        "▁sisteminin",
        -10.416407634171266
      ],
      [
        "▁kaydı",
        -10.416564576663976
      ],
      [
        "▁hayal",
        -10.4167466071559
      ],
      [
        "▁olacaktır",
        -10.417242174550402
      ],
      [
        "▁cor",
        -10.41793197325377
      ],
      [
        "▁asist",
        -10.418966251281292
      ],
      [
        "ül",
        -10.419453995621629
      ],
      [
        "mıştı",
        -10.41962328751687
      ],
      [
        "▁filistin",
        -10.420010348771473
      ],
      [
        "▁yusuf",
        -10.420610499939702
      ],
      [
        "▁şam",
        -10.421230179002341
      ],
      [
        "▁genelinde",
        -10.421271274075119
      ],
      [
        "▁eskişehir",
        -10.42328934612809
      ],
      [
        "▁şiddet",
        -10.423290842738677
      ],
      [
        "bon",
        -10.42347308518441
      ],
      [
        "lılar",
        -10.424158801523639
      ],
      [
        "▁tarihçi",
        -10.424304584551095
      ],
      [
        "▁ilerleyen",
        -10.424717201575959
      ],
      [
        "▁ilham",
        -10.42486123884571
      ],
      [
        "lat",
        -10.42491184872637
      ],
      [
        "▁ayrılmıştır",
        -10.425192679878387
      ],
      [
        "▁öldürüldü",
        -10.425784955650423
      ],
      [
        "ari",
        -10.42651768324116
      ],
      [
        "▁bölgedeki",
        -10.42697544382923
      ],
      [
        "▁fu",
        -10.427146143529
      ],
      [
        "▁değişiklik",
        -10.427367585756725
      ],
      [
        "▁big",
        -10.428223716942261
      ],
      [
        "▁stadyum",
        -10.428495680393468
      ],
      [
        "▁music",
        -10.42857042391553
      ],
      [
        "▁gerçekleştiril",
        -10.428572739846352
      ],
      [
        "▁bronz",
        -10.429491766491415
      ],
      [
        "lendi",
        -10.429525424027988
      ],
      [
        "▁seçimi",
        -10.429588341999317
      ],
      [
        "▁toplama",
        -10.430603475583117
      ],
      [
        "lanarak",
        -10.432622815582754
      ],
      [
        "▁şampiyonluk",
        -10.433614992311648
      ],
      [
        "▁varlığı",
        -10.433719511030182
      ],
      [
        "▁yönetilen",
        -10.433745191331324
      ],
      [
        "▁akım",
        -10.433970869142025
      ],
      [
        "▁sabah",
        -10.433973648071863
      ],
      [
        "▁konuk",
        -10.434123989052527
      ],
      [
        "▁toplu",
        -10.434376031689672
      ],
      [
        "tis",
        -10.434717373861131
      ],
      [
        "▁toprakları",
        -10.434991502684076
      ],
      [
        "▁fikir",
        -10.43529332254454
      ],
      [
        "▁cinsiyet",
        -10.435449268640408
      ],
      [
        "▁pe",
        -10.436656048498582
      ],
      [
        "▁değişiklikler",
        -10.436763945818864
      ],
      [
        "▁antlaşma",
        -10.43687584157577
      ],
      [
        "▁açıklandı",
        -10.436909247297095
      ],
      [
        "ano",
        -10.437733127555786
      ],
      [
        "▁selçuklu",
        -10.438585068196526
      ],
      [
        "▁ettiğini",
        -10.438691600802935
      ],
      [
        "▁katılma",
        -10.439364064028794
      ],
      [
        "▁ebu",
        -10.439627180451668
      ],
      [
        "▁geliştirilen",
        -10.439684050240162
      ],
      [
        "▁şekli",
        -10.439972265930919
      ],
      [
        "har",
        -10.440776541009882
      ],
      [
        "▁rum",
        -10.441162214448278
      ],
      [
        "tt",
        -10.44120355442791
      ],
      [
        "▁ederler",
        -10.441208445589089
      ],
      [
        "▁trt",
        -10.441487097760136
      ],
      [
        "▁we",
        -10.441811686276225
      ],
      [
        "sü",
        -10.442001409437193
      ],
      [
        "▁kaldığı",
        -10.442018775060582
      ],
      [
        "▁one",
        -10.442315122340252
      ],
      [
        "▁korumak",
        -10.442583945657834
      ],
      [
        "yazılmıştır",
        -10.442892169638132
      ],
      [
        "▁super",
        -10.443398860491556
      ],
      [
        "▁kullanılması",
        -10.443618468570943
      ],
      [
        "▁göstermiştir",
        -10.44369013139146
      ],
      [
        "▁bölümün",
        -10.44500016683301
      ],
      [
        "▁kalkınma",
        -10.445218633585535
      ],
      [
        "yon",
        -10.44563959647146
      ],
      [
        "▁hâle",
        -10.445722068570579
      ],
      [
        "▁cihaz",
        -10.44602478271729
      ],
      [
        "ell",
        -10.446133574077999
      ],
      [
        "▁lige",
        -10.446273892072812
      ],
      [
        "▁belirlenmiş",
        -10.446632028624798
      ],
      [
        "ölümüne",
        -10.446841369140316
      ],
      [
        "▁üstün",
        -10.446887914479454
      ],
      [
        "tor",
        -10.447137771472528
      ],
      [
        "▁kendilerini",
        -10.447191749285796
      ],
      [
        "▁liman",
        -10.447489602715033
      ],
      [
        "▁bırak",
        -10.447985837666337
      ],
      [
        "▁açı",
        -10.448389506331141
      ],
      [
        "▁uzanan",
        -10.448849288655438
      ],
      [
        "▁bölgesinin",
        -10.448851898378269
      ],
      [
        "▁hanım",
        -10.44907158205466
      ],
      [
        "▁gemisi",
        -10.449146703529111
      ],
      [
        "▁mary",
        -10.449775497163131
      ],
      [
        "▁seferi",
        -10.449863734346321
      ],
      [
        "hisar",
        -10.44991941112605
      ],
      [
        "▁dişi",
        -10.45074297030695
      ],
      [
        "▁müdahale",
        -10.450940357223374
      ],
      [
        "▁bölümünü",
        -10.451035376626322
      ],
      [
        "▁millet",
        -10.451097055159826
      ],
      [
        "▁idaresi",
        -10.451149538684263
      ],
      [
        "▁lider",
        -10.451226082168567
      ],
      [
        "▁salonu",
        -10.4513055829419
      ],
      [
        "▁kurum",
        -10.451363158359491
      ],
      [
        "bir",
        -10.451493694908201
      ],
      [
        "▁terimi",
        -10.452814905896922
      ],
      [
        "ps",
        -10.453932757460926
      ],
      [
        "▁olumsuz",
        -10.454046683403956
      ],
      [
        "▁dilleri",
        -10.454242201648215
      ],
      [
        "▁çıkı",
        -10.4542763380762
      ],
      [
        "▁iktidar",
        -10.454369323621254
      ],
      [
        "▁denilen",
        -10.454380714827114
      ],
      [
        "▁görüldü",
        -10.455246464518174
      ],
      [
        "▁güçleri",
        -10.455324367586067
      ],
      [
        "▁donanma",
        -10.45559248265093
      ],
      [
        "▁evinde",
        -10.456031740987434
      ],
      [
        "▁tasvir",
        -10.457061797056461
      ],
      [
        "▁kısmen",
        -10.4571052735789
      ],
      [
        "▁dayanan",
        -10.457348287728655
      ],
      [
        "▁şarkılar",
        -10.457469095730787
      ],
      [
        "▁otomatik",
        -10.458126150390775
      ],
      [
        "ize",
        -10.458475581278709
      ],
      [
        "▁macar",
        -10.458638186026484
      ],
      [
        "▁ortodoks",
        -10.458864155580372
      ],
      [
        "▁çıkma",
        -10.459124145743518
      ],
      [
        "▁sap",
        -10.45917458214394
      ],
      [
        "▁kastamonu",
        -10.45975205141311
      ],
      [
        "▁sanatlar",
        -10.460259441068136
      ],
      [
        "▁hep",
        -10.460284857047045
      ],
      [
        "▁yaptıkları",
        -10.460382184805814
      ],
      [
        "he",
        -10.461257073017444
      ],
      [
        "avi",
        -10.461274174595061
      ],
      [
        "▁değerli",
        -10.461302019201527
      ],
      [
        "▁basınç",
        -10.461328690013298
      ],
      [
        "▁mar",
        -10.462158982777655
      ],
      [
        "▁türkmen",
        -10.462354338747568
      ],
      [
        "▁angel",
        -10.462389886549289
      ],
      [
        "▁meydan",
        -10.462864374584385
      ],
      [
        "▁haçlı",
        -10.463230157857438
      ],
      [
        "▁mah",
        -10.463837362797705
      ],
      [
        "▁gerçekleşti",
        -10.463857885739804
      ],
      [
        "▁galibiyet",
        -10.463942057250751
      ],
      [
        "▁yarım",
        -10.464508000815918
      ],
      [
        "▁live",
        -10.464586398706109
      ],
      [
        "▁tour",
        -10.464754052363894
      ],
      [
        "▁kemer",
        -10.465133114497107
      ],
      [
        "▁üstünde",
        -10.46618412809427
      ],
      [
        "▁yarışmada",
        -10.466359972685604
      ],
      [
        "▁herkes",
        -10.466646388897201
      ],
      [
        "▁bisiklet",
        -10.466654661458426
      ],
      [
        "▁birer",
        -10.466665558538532
      ],
      [
        "▁kitabın",
        -10.466914488202747
      ],
      [
        "▁karbon",
        -10.4673117867261
      ],
      [
        "▁kavramı",
        -10.467450408285899
      ],
      [
        "▁kariyer",
        -10.467729204332668
      ],
      [
        "▁kültürü",
        -10.468204687690285
      ],
      [
        "▁sahil",
        -10.468568440533517
      ],
      [
        "ffy",
        -10.468831930757784
      ],
      [
        "▁uzunluğunda",
        -10.468892740521
      ],
      [
        "▁kolu",
        -10.469091278410495
      ],
      [
        "▁maçın",
        -10.46954539194974
      ],
      [
        "▁baskın",
        -10.469719289333245
      ],
      [
        "▁intihar",
        -10.470685154172767
      ],
      [
        "▁jack",
        -10.47168217806129
      ],
      [
        "▁çeyrek",
        -10.47169455102924
      ],
      [
        "▁daniel",
        -10.471978840275964
      ],
      [
        "▁dönen",
        -10.472350195187122
      ],
      [
        "▁selim",
        -10.473761287408939
      ],
      [
        "▁olayları",
        -10.474129601053143
      ],
      [
        "▁şeyh",
        -10.474440043948038
      ],
      [
        "▁kulübün",
        -10.474862016901168
      ],
      [
        "▁yayınları",
        -10.47561746986655
      ],
      [
        "▁koç",
        -10.475628362211133
      ],
      [
        "▁sorun",
        -10.47572062347068
      ],
      [
        "▁per",
        -10.475764546360582
      ],
      [
        "az",
        -10.475954218141313
      ],
      [
        "▁kanıt",
        -10.476263555381223
      ],
      [
        "▁eleştiriler",
        -10.476751820678578
      ],
      [
        "▁kısmını",
        -10.476875888296883
      ],
      [
        "atmıştır",
        -10.477026875537115
      ],
      [
        "▁aileden",
        -10.47718218379811
      ],
      [
        "▁çıkması",
        -10.47721531950604
      ],
      [
        "▁tehlike",
        -10.477280912727387
      ],
      [
        "▁öğrenciler",
        -10.477585064176761
      ],
      [
        "▁yayımladı",
        -10.47763116361801
      ],
      [
        "▁hoca",
        -10.477794251727786
      ],
      [
        "▁öğrencisi",
        -10.477836886510548
      ],
      [
        "ation",
        -10.478236024110217
      ],
      [
        "▁yayımlanmış",
        -10.478722011985873
      ],
      [
        "▁güven",
        -10.478779825152163
      ],
      [
        "▁yapıldığı",
        -10.479346357727218
      ],
      [
        "▁ağa",
        -10.479583488818617
      ],
      [
        "▁tabanlı",
        -10.479852366347195
      ],
      [
        "▁tarihlerinde",
        -10.48008353184727
      ],
      [
        "▁katkıd",
        -10.48045257736789
      ],
      [
        "layan",
        -10.480666862695209
      ],
      [
        "▁manisa",
        -10.480866761947672
      ],
      [
        "▁drama",
        -10.48122541267818
      ],
      [
        "▁çalışmalarını",
        -10.481497678181933
      ],
      [
        "mez",
        -10.481522190982902
      ],
      [
        "▁tasarımı",
        -10.481525395773067
      ],
      [
        "▁hizmeti",
        -10.48195966213393
      ],
      [
        "▁miss",
        -10.48231323564734
      ],
      [
        "▁sınırı",
        -10.482563821381728
      ],
      [
        "▁yerleşti",
        -10.484462976396992
      ],
      [
        "▁abdullah",
        -10.484602250348399
      ],
      [
        "▁okyanus",
        -10.484665342459062
      ],
      [
        "▁sözü",
        -10.484911526036145
      ],
      [
        "▁iptal",
        -10.484985083410507
      ],
      [
        "▁bakü",
        -10.485141447333152
      ],
      [
        "▁finali",
        -10.485735607485678
      ],
      [
        "▁albümleri",
        -10.485769735277469
      ],
      [
        "▁fin",
        -10.486404404272198
      ],
      [
        "▁süreç",
        -10.486535168970795
      ],
      [
        "▁güneydoğu",
        -10.487826678241166
      ],
      [
        "▁paralel",
        -10.488088787486669
      ],
      [
        "▁atom",
        -10.488194048214755
      ],
      [
        "▁yerlerde",
        -10.48861068419518
      ],
      [
        "rin",
        -10.488841219762808
      ],
      [
        "▁servis",
        -10.488874400529962
      ],
      [
        "▁göreve",
        -10.489665619339439
      ],
      [
        "ıyor",
        -10.489694242170163
      ],
      [
        "▁balkan",
        -10.490059264353361
      ],
      [
        "▁olası",
        -10.490116307003703
      ],
      [
        "▁kaynakları",
        -10.490707350702925
      ],
      [
        "▁anlam",
        -10.490725500554003
      ],
      [
        "▁gördüğü",
        -10.49135754419977
      ],
      [
        "▁kadınların",
        -10.491406478364034
      ],
      [
        "▁cup",
        -10.492033431217637
      ],
      [
        "▁pat",
        -10.492308175872006
      ],
      [
        "▁girmişti",
        -10.49342720829616
      ],
      [
        "▁şarkıları",
        -10.493766229922654
      ],
      [
        "▁kurduğu",
        -10.49406264172372
      ],
      [
        "▁kontrolü",
        -10.49460968119918
      ],
      [
        "yev",
        -10.494739358551593
      ],
      [
        "▁uygulaması",
        -10.494787450517942
      ],
      [
        "▁kanunu",
        -10.494965894779755
      ],
      [
        "sar",
        -10.495454604850782
      ],
      [
        "aj",
        -10.495581794443986
      ],
      [
        "▁görür",
        -10.495947760569367
      ],
      [
        "▁sürüldü",
        -10.496110790206771
      ],
      [
        "▁statüsü",
        -10.496133854582457
      ],
      [
        "▁nesne",
        -10.498322041649448
      ],
      [
        "▁parçaları",
        -10.498791201123385
      ],
      [
        "▁festival",
        -10.498845723227598
      ],
      [
        "▁partinin",
        -10.499160609618245
      ],
      [
        "mız",
        -10.500450705999274
      ],
      [
        "▁devrimci",
        -10.500537050342277
      ],
      [
        "▁müzikal",
        -10.500811924221948
      ],
      [
        "▁bölgelerde",
        -10.500986090622774
      ],
      [
        "▁yasası",
        -10.50159654561002
      ],
      [
        "▁yugoslavya",
        -10.502935907305591
      ],
      [
        "▁golünü",
        -10.503288265332928
      ],
      [
        "▁uyarı",
        -10.503292558583867
      ],
      [
        "cilik",
        -10.503320169178338
      ],
      [
        "▁yargı",
        -10.503353192373295
      ],
      [
        "▁yapımcı",
        -10.505091275280634
      ],
      [
        "▁manchester",
        -10.50596465045281
      ],
      [
        "▁prof",
        -10.506482192319082
      ],
      [
        "▁amaç",
        -10.506616075637423
      ],
      [
        "▁çözüm",
        -10.50702416902132
      ],
      [
        "til",
        -10.507466788135623
      ],
      [
        "▁sar",
        -10.507765727480795
      ],
      [
        "▁dönemlerde",
        -10.507869801117897
      ],
      [
        "▁vadisi",
        -10.507906088577547
      ],
      [
        "▁biriydi",
        -10.508764172380452
      ],
      [
        "▁organize",
        -10.508854712805594
      ],
      [
        "▁karanlık",
        -10.509062612982717
      ],
      [
        "▁sscb",
        -10.509288381458953
      ],
      [
        "▁gönderdi",
        -10.509841846888895
      ],
      [
        "▁har",
        -10.510055166410883
      ],
      [
        "▁ekip",
        -10.510497946188801
      ],
      [
        "▁uydu",
        -10.51100848453045
      ],
      [
        "▁çekilen",
        -10.511453107738015
      ],
      [
        "▁albert",
        -10.511482417117648
      ],
      [
        "▁olmasını",
        -10.511626677757905
      ],
      [
        "▁chi",
        -10.512493800525903
      ],
      [
        "▁filmler",
        -10.512603385347457
      ],
      [
        "▁karakterini",
        -10.512752744400897
      ],
      [
        "▁real",
        -10.513267973667146
      ],
      [
        "tus",
        -10.513565682530317
      ],
      [
        "stein",
        -10.513684645585982
      ],
      [
        "▁dışındaki",
        -10.513781073475092
      ],
      [
        "▁sorunları",
        -10.514678351252108
      ],
      [
        "▁belgesel",
        -10.51507188114482
      ],
      [
        "▁patlama",
        -10.515491619610755
      ],
      [
        "▁ondan",
        -10.51667129266035
      ],
      [
        "unda",
        -10.518263950087354
      ],
      [
        "▁görme",
        -10.518467413228727
      ],
      [
        "▁hizmetleri",
        -10.519773126729218
      ],
      [
        "▁eskiden",
        -10.519806240337937
      ],
      [
        "tha",
        -10.52050182956882
      ],
      [
        "sından",
        -10.520875443969617
      ],
      [
        "▁mikro",
        -10.521221873212122
      ],
      [
        "▁kitabında",
        -10.52133209631761
      ],
      [
        "▁aylarında",
        -10.521462525859798
      ],
      [
        "▁isteği",
        -10.521674908257049
      ],
      [
        "▁şarkıyı",
        -10.522048104595457
      ],
      [
        "▁birinin",
        -10.522536042493634
      ],
      [
        "▁takımda",
        -10.523322491323635
      ],
      [
        "▁anlaşması",
        -10.523371182295996
      ],
      [
        "▁mesafe",
        -10.523623920757915
      ],
      [
        "▁kazakistan",
        -10.523671400855068
      ],
      [
        "▁listesine",
        -10.523914011350264
      ],
      [
        "▁maden",
        -10.523931623989435
      ],
      [
        "▁kurulması",
        -10.524313560746835
      ],
      [
        "▁komünün",
        -10.524925604080162
      ],
      [
        "▁gösterdiği",
        -10.525525617061122
      ],
      [
        "hu",
        -10.525621362468758
      ],
      [
        "▁jo",
        -10.526188806071085
      ],
      [
        "▁kökeni",
        -10.526546435444994
      ],
      [
        "▁yazma",
        -10.526774674740729
      ],
      [
        "▁kişilerin",
        -10.526850313647689
      ],
      [
        "▁yükselen",
        -10.527889827884039
      ],
      [
        "▁taşıma",
        -10.528243296175518
      ],
      [
        "eceğini",
        -10.52866848172977
      ],
      [
        "▁mühendislik",
        -10.52875807414133
      ],
      [
        "▁kaynakça",
        -10.528801915987577
      ],
      [
        "▁bakan",
        -10.529002785724037
      ],
      [
        "▁zorunlu",
        -10.529193747346953
      ],
      [
        "▁çıkardığı",
        -10.529377207335262
      ],
      [
        "▁işleme",
        -10.530003119396664
      ],
      [
        "▁aç",
        -10.530038279857406
      ],
      [
        "▁gelmesi",
        -10.53035771965673
      ],
      [
        "acağı",
        -10.530992504360462
      ],
      [
        "▁koleji",
        -10.531255769076523
      ],
      [
        "▁pay",
        -10.531345719450348
      ],
      [
        "▁filmleri",
        -10.531691597770877
      ],
      [
        "▁arkadaşları",
        -10.53170037371999
      ],
      [
        "lenen",
        -10.532209811887014
      ],
      [
        "▁savaşları",
        -10.53285140614837
      ],
      [
        "▁sorunlar",
        -10.533046872935541
      ],
      [
        "▁uçağı",
        -10.533193396305798
      ],
      [
        "▁layık",
        -10.533341578675048
      ],
      [
        "▁kars",
        -10.534063019663696
      ],
      [
        "▁arasına",
        -10.534190261872249
      ],
      [
        "▁benim",
        -10.534660559038885
      ],
      [
        "ment",
        -10.534721736332832
      ],
      [
        "▁istasyon",
        -10.535199410761825
      ],
      [
        "▁edebiyatı",
        -10.535416582336888
      ],
      [
        "▁buray",
        -10.535495496773711
      ],
      [
        "▁saygı",
        -10.535668611494948
      ],
      [
        "▁harry",
        -10.535792579761663
      ],
      [
        "▁aslan",
        -10.536185487801434
      ],
      [
        "▁musa",
        -10.536325475364432
      ],
      [
        "▁aşağıda",
        -10.536958213054096
      ],
      [
        "sidir",
        -10.537056378611595
      ],
      [
        "▁askerler",
        -10.537623185183318
      ],
      [
        "lmuştur",
        -10.538059085381104
      ],
      [
        "kon",
        -10.538062004985978
      ],
      [
        "▁köyünde",
        -10.538525268179363
      ],
      [
        "▁nadir",
        -10.538671389085287
      ],
      [
        "▁hane",
        -10.539493766908292
      ],
      [
        "▁green",
        -10.540233144149187
      ],
      [
        "▁mezar",
        -10.540387944683578
      ],
      [
        "▁alınması",
        -10.541704514501838
      ],
      [
        "▁kafa",
        -10.541887734602147
      ],
      [
        "▁hepsi",
        -10.542800068921132
      ],
      [
        "▁kısım",
        -10.543010098764091
      ],
      [
        "suz",
        -10.544096502295854
      ],
      [
        "▁bireysel",
        -10.544227826054955
      ],
      [
        "ası",
        -10.544289469188795
      ],
      [
        "▁yönde",
        -10.5444185995938
      ],
      [
        "▁yasak",
        -10.544532267856498
      ],
      [
        "▁taarruz",
        -10.5447502593295
      ],
      [
        "▁kütüphane",
        -10.545103279352674
      ],
      [
        "▁bomba",
        -10.545325927698014
      ],
      [
        "bur",
        -10.545682801855637
      ],
      [
        "▁bölümler",
        -10.545711220574118
      ],
      [
        "▁tanınır",
        -10.54635915765934
      ],
      [
        "içermektedir",
        -10.546593452694507
      ],
      [
        "olsun",
        -10.547274492692573
      ],
      [
        "çalışmıştır",
        -10.547295637752605
      ],
      [
        "▁kahverengi",
        -10.547985324686913
      ],
      [
        "▁emin",
        -10.548215558430352
      ],
      [
        "gü",
        -10.548353387362791
      ],
      [
        "▁yıldırım",
        -10.548401860303358
      ],
      [
        "▁inceleme",
        -10.548628566601908
      ],
      [
        "▁isimler",
        -10.548711238347927
      ],
      [
        "▁genetik",
        -10.549093138058467
      ],
      [
        "▁forvet",
        -10.549119095820153
      ],
      [
        "▁tel",
        -10.549136067170874
      ],
      [
        "▁olanak",
        -10.550212231174658
      ],
      [
        "▁orhan",
        -10.55151119693257
      ],
      [
        "▁düzenleme",
        -10.551604104558963
      ],
      [
        "▁marmara",
        -10.551800164749832
      ],
      [
        "birinden",
        -10.55201629254272
      ],
      [
        "▁cilt",
        -10.552421147444072
      ],
      [
        "nas",
        -10.552734943970357
      ],
      [
        "▁başlattı",
        -10.552876125450293
      ],
      [
        "ent",
        -10.553289250741448
      ],
      [
        "val",
        -10.553385857341532
      ],
      [
        "▁max",
        -10.553567645275589
      ],
      [
        "kle",
        -10.554209824787403
      ],
      [
        "▁dakikada",
        -10.554356481374247
      ],
      [
        "dis",
        -10.554938726997483
      ],
      [
        "▁prix",
        -10.555256946405573
      ],
      [
        "bal",
        -10.555391301739501
      ],
      [
        "wood",
        -10.556111295752384
      ],
      [
        "▁çalıştığı",
        -10.556238566047067
      ],
      [
        "▁sıfır",
        -10.557291556361085
      ],
      [
        "▁diş",
        -10.557744815836312
      ],
      [
        "▁seyirci",
        -10.558046676919561
      ],
      [
        "▁alanlarda",
        -10.558127076105055
      ],
      [
        "▁carl",
        -10.558155548132374
      ],
      [
        "▁hariç",
        -10.558161452043741
      ],
      [
        "▁dersleri",
        -10.559111107858099
      ],
      [
        "ince",
        -10.559534993828434
      ],
      [
        "▁hazırlanan",
        -10.559831092565492
      ],
      [
        "▁süt",
        -10.560267398155274
      ],
      [
        "▁takıma",
        -10.560500283698179
      ],
      [
        "▁başlangıç",
        -10.560544977101154
      ],
      [
        "▁ödeme",
        -10.561207444524426
      ],
      [
        "olmaktadır",
        -10.561359182533048
      ],
      [
        "▁heykel",
        -10.56169902514323
      ],
      [
        "▁evi",
        -10.562233121764416
      ],
      [
        "▁taraf",
        -10.562236811519924
      ],
      [
        "▁odası",
        -10.562435423132728
      ],
      [
        "▁trans",
        -10.56254697771708
      ],
      [
        "▁yorum",
        -10.56297301081089
      ],
      [
        "bil",
        -10.564118711431375
      ],
      [
        "▁güncel",
        -10.564249771310498
      ],
      [
        "dra",
        -10.564469740967844
      ],
      [
        "▁raw",
        -10.565249300280646
      ],
      [
        "▁getiren",
        -10.565598021686377
      ],
      [
        "▁emri",
        -10.565896315831456
      ],
      [
        "▁kahraman",
        -10.566055261568147
      ],
      [
        "▁uç",
        -10.566597372787452
      ],
      [
        "▁örneği",
        -10.566899983418917
      ],
      [
        "▁ilişkili",
        -10.567218358337827
      ],
      [
        "▁anahtar",
        -10.567293690021136
      ],
      [
        "▁smith",
        -10.568717340464762
      ],
      [
        "▁milliyetçi",
        -10.568735599860887
      ],
      [
        "zen",
        -10.569236044209385
      ],
      [
        "▁ölen",
        -10.56940216507497
      ],
      [
        "▁yahudiler",
        -10.569553812729916
      ],
      [
        "nis",
        -10.56978002309903
      ],
      [
        "▁körfezi",
        -10.570102955682597
      ],
      [
        "▁kanat",
        -10.570153947408322
      ],
      [
        "▁ağırlıklı",
        -10.57091588478174
      ],
      [
        "ras",
        -10.571800530856155
      ],
      [
        "▁düşen",
        -10.571847564510335
      ],
      [
        "gil",
        -10.572313362354667
      ],
      [
        "▁uygulamaları",
        -10.572845409577557
      ],
      [
        "▁ga",
        -10.572906085748702
      ],
      [
        "▁şehirdeki",
        -10.572953369325761
      ],
      [
        "kent",
        -10.573300260944977
      ],
      [
        "▁kosova",
        -10.573607592606402
      ],
      [
        "kaleme",
        -10.573714454666813
      ],
      [
        "▁yağmur",
        -10.57381205657666
      ],
      [
        "▁geçmişi",
        -10.574025583180383
      ],
      [
        "▁ödüller",
        -10.574327831691367
      ],
      [
        "day",
        -10.574541696289678
      ],
      [
        "▁dağlık",
        -10.575048535607586
      ],
      [
        "lanma",
        -10.575512375612714
      ],
      [
        "▁tekli",
        -10.575768497923073
      ],
      [
        "las",
        -10.575907537800642
      ],
      [
        "▁yönetiminde",
        -10.576223321822544
      ],
      [
        "▁pu",
        -10.576382722952918
      ],
      [
        "▁hasar",
        -10.576569370531125
      ],
      [
        "▁istediği",
        -10.576874549351958
      ],
      [
        "mir",
        -10.577244615167698
      ],
      [
        "▁organizasyon",
        -10.577450185455868
      ],
      [
        "▁entertainment",
        -10.577631922661556
      ],
      [
        "▁sayılabilir",
        -10.577683182986215
      ],
      [
        "▁tanesi",
        -10.577701245009198
      ],
      [
        "ria",
        -10.578095190112094
      ],
      [
        "▁pozitif",
        -10.578195093460186
      ],
      [
        "▁gerçekleştirdi",
        -10.578373222184338
      ],
      [
        "▁olmayı",
        -10.578418553864852
      ],
      [
        "dağ",
        -10.578891664686902
      ],
      [
        "baş",
[...]
